/**
  ******************************************************************************
  * @file    network_data_params.c
  * @author  AST Embedded Analytics Research Platform
  * @date    2024-10-25T17:35:36+0000
  * @brief   AI Tool Automatic Code Generator for Embedded NN computing
  ******************************************************************************
  * Copyright (c) 2024 STMicroelectronics.
  * All rights reserved.
  *
  * This software is licensed under terms that can be found in the LICENSE file
  * in the root directory of this software component.
  * If no LICENSE file comes with this software, it is provided AS-IS.
  ******************************************************************************
  */

#include "network_data_params.h"
#if defined ( __ICCARM__ )
#define AI_EXTERNAL_FLASH    _Pragma("location=\"ExternalFlashSection\"")
#define AI_INTERNAL_FLASH    _Pragma("location=\"InternalFlashSection\"")
#elif defined ( __CC_ARM ) || ( __GNUC__ )
#define AI_EXTERNAL_FLASH    __attribute__((section(".ExternalFlashSection")))
#define AI_INTERNAL_FLASH    __attribute__((section(".InternalFlashSection")))
#endif


/**  Activations Section  ****************************************************/
ai_handle g_network_activations_table[1 + 2] = {
  AI_HANDLE_PTR(AI_MAGIC_MARKER),
  AI_HANDLE_PTR(NULL),
  AI_HANDLE_PTR(AI_MAGIC_MARKER),
};




/**  Weights Section  ********************************************************/
AI_ALIGNED(32)
AI_EXTERNAL_FLASH
const ai_u64 s_network__Relu_output_0_weights_array_u64[12544] = {
  0x2ffffa3f38ee08e8U, 0x19ff0e0be6e40b00U, 0x83dfef62ae02f23U, 0xe8db1f3d0118e7e1U,
  0xf7ebf4df0d04deecU, 0xf2fb11e002fb0515U, 0x3239f805162e2000U, 0x1d0afd002f0d0136U,
  0x2fff2b2c0c0cf7eeU, 0x2e28273a2516f511U, 0x22210901fa012b1eU, 0xe8f8133b1ce5331fU,
  0x2ef7df060410ed19U, 0xe81c1b2b33010ee9U, 0x16f11429232e111fU, 0x1bf6e8d5e7f90916U,
  0xfb08120ae116cbecU, 0x8dc1c22f2173101U, 0x113ed2aee15222bU, 0x6d0d2e923c504e2U,
  0xe33337f308071fd6U, 0x341b1c34181918eeU, 0x14df0dfadbe7daedU, 0xd7261bd1f5f725dcU,
  0xe82b370c0516ff1aU, 0xf5ca2de4e727091dU, 0xe8f130e128d116d1U, 0xea14dfde14d0fb29U,
  0xebe6de0b12114001U, 0xe9eddef800f914dcU, 0x222812260229f710U, 0x11f3e33f1d231ae9U,
  0x171b341ce2f51bddU, 0xeb1eda131ae6ddf8U, 0x3e35f20e25f1eedaU, 0xa1b0e1e2813e12eU,
  0x1df9fee5ce08fcdfU, 0xf6ec20131c37f433U, 0x33f5e23a0905120eU, 0xed7fff114f2f73bU,
  0x34f1ef27e3f2dfcdU, 0x350b1c10dcf818eaU, 0xe0d0ef81f26f1edU, 0x3eea17fd01d511d8U,
  0xf71d24f12e2600edU, 0xe6f8361fdcfbf3U, 0xe5d10f0301dee93bU, 0xe2ddf90030f4381cU,
  0x2107162413d107eaU, 0x23fbf6121f13f80eU, 0xfc0416e92522cd17U, 0xdae0e41dcdf4dbf8U,
  0x1f1adef4f4132102U, 0x190acc0a2719efeaU, 0xebe03907e9e1ddedU, 0xe0e81a3a10081b16U,
  0x13d1e4eb27f8341cU, 0xe21528d3cfde10ebU, 0x18202610e1d4eae1U, 0xee37e919f6270a18U,
  0xe9e12921d111cfe0U, 0xc728e42010d910d8U, 0xecf60b0a301fce1bU, 0xecfedc223d35e7e9U,
  0x12092c0222dad3ebU, 0xe0d0d4062d0f08ffU, 0x223febe0183824dfU, 0xe304cad6c411efe8U,
  0x23241e110c1722d8U, 0x720e93b2e010af2U, 0x20d25e2ef1cfc25U, 0xebe0fc251ef9efe1U,
  0xdb1a2c23ebdaec09U, 0xf3f0db191e20ddfdU, 0x140906d4fb242916U, 0x2e1bd11eedfaf715U,
  0xddf3071ddd25dce6U, 0xe9133236ef27f628U, 0x2b2ffb10d518d409U, 0x181231ea0224272cU,
  0xf22928233f28042dU, 0xebf51fece7dbf20cU, 0x1117ffe30ff70000U, 0xf400db28330df50eU,
  0x2fdf161c3eff2d2fU, 0xfbe30cf31beff8feU, 0x8fc142a1e15ec32U, 0xfa363b0f31e5152bU,
  0x25df07260ee72e01U, 0x26f4fb2a23dfedfdU, 0xe0e618dc0b142a19U, 0xf0f40a3e0439df2bU,
  0x153709093b170f17U, 0x12e43ce8f9020538U, 0x252de3f9382e36f5U, 0x21343aeafc202332U,
  0xee1b05080d2b0dfbU, 0x3f517ea3637dde0U, 0x909000302fd0706U, 0x109fe070904fb08U,
  0x8050308ff040504U, 0x704fc0205050703U, 0xa06070006060702U, 0x80409fdfc020a07U,
  0xfefe0505fe06fd01U, 0xfcfd060507fb06fcU, 0xc0900050a040a06U, 0x3020a05090c07ffU,
  0xff040804ff00fdffU, 0xff06fe08fefc0906U, 0xa07ff01faf7f701U, 0x90001ff030d0d11U,
  0x5fd04fb05feff06U, 0xf7e8e5f2f4f8fc00U, 0xe0e060607030402U, 0x200fc08fbfd0409U,
  0xe7fafb03ff02f606U, 0x160b0108f7e3daecU, 0x8feff060915170dU, 0x3f3fbfcfa060403U,
  0xe7d7c0cbd6ecf3ffU, 0x160b0308f8edf1edU, 0x1fc050604060413U, 0xd2e7fd0700f7fb01U,
  0xedeffbe6ecf0d3d6U, 0xfc090d0d16060cffU, 0x2fcf8fdfd010604U, 0xfcf0e6d7d8f70903U,
  0xc060b03fbe901feU, 0xf702ff020606120dU, 0xe3ed010608f8fa02U, 0x8081612fad3cacdU,
  0x40501100d060a0aU, 0x8f3f6f9f6fc0205U, 0xadfd5d6e0fd0608U, 0x2fafd01080710ffU,
  0xf5fdfc03fe010a0dU, 0xdc061a0a06f8fbfbU, 0xf4f8f2efedede7f6U, 0x1050201f7e8f0eeU,
  0xefef5f00201fb00U, 0xe6eb0c1c080d1112U, 0xf0f4ece5def1ebU, 0xf801fefd000006fcU,
  0xf111a1512120afeU, 0xe5e9fcf1fe030a1aU, 0x200f8fafaf6f8f1U, 0x1a16140700fcfc08U,
  0xff180b11180d1d13U, 0x3fdf1e3e3e0fe00U, 0x101fefb04fc01fcU, 0xa131b1a15090702U,
  0xe7e6eafefe2b2510U, 0x7fe03f305f3f7e1U, 0xc0702f30a090100U, 0xf2d1d080a09090aU,
  0xfaf9faf5e6f0eb05U, 0x70101050000fcffU, 0xc11fc050104fcffU, 0xf7fffa04021e250fU,
  0x5fdf4fcf5f5fcf4U, 0xf8f8f9f1fe050701U, 0x11c343813020200U, 0xf7eaf9fbf903fd0aU,
  0x6fd06fffc070202U, 0x1501faefe7f0faf9U, 0xfa0f060f161b2325U, 0x102fa02f8f8fa0cU,
  0xebedeafbf5fe0307U, 0x18181f201c10f6ebU, 0xf8faff090d12080dU, 0x4030609fe0307f9U,
  0x1400f9f1f8ecf0f9U, 0xf1d17071f292619U, 0xfefcfefbf909060eU, 0xf1faf5fbfe06fcffU,
  0xa121a130502ecf2U, 0x5060c0d1a151315U, 0x808ff00090009fdU, 0xf5f5f8f9edf3f904U,
  0x1218131509080b0aU, 0xfe050003fd040c15U, 0xecf201050504ff04U, 0xfefcf5f0e5f0ebU,
  0xfd03090314090707U, 0x907060906040408U, 0xe7e7ececf7f2fe06U, 0xfcfaedf7e9e4edebU,
  0x7000601fd04fbfbU, 0xf8fc08fb010001U, 0xeaecf5f2fcecfa02U, 0xfdfffdfffceefcf1U,
  0x4fb04030506ff08U, 0x7fefdfd07fb0300U, 0x9fd03fefc050706U, 0xfcffffff0208ff03U,
  0x2113e180cec1f0aU, 0x8e6f9f3f4f21d14U, 0xd5e521e6f81fe115U, 0x42fe7fa33e9e8d5U,
  0x163b0b0e08d4ead7U, 0x23f7efe2f8ee012cU, 0x907f507d9de1f2fU, 0xdd30051ff23c0ee8U,
  0xf000e92c2905fa28U, 0x27f0f701ddd82cdeU, 0x3bef2b05da363bf3U, 0xdde923fdf6350a28U,
  0xfc293f0a163ae9ebU, 0x4f00a38d8fbef34U, 0xb1f123922ea0ef3U, 0x2f3d1bde21f40e38U,
  0xa3b3dec35160f3fU, 0x150223f73d281700U, 0xef05e5122d2eef2cU, 0x1ad9e408d6daeadcU,
  0x20d3f5061c2c0aefU, 0x26ec37da0918f6d8U, 0x131ee906d22d371bU, 0x331f3b2c3224150fU,
  0xea250f2712dd34dcU, 0x26e103e9dcd5f50fU, 0xd723d7f0ee1e202aU, 0xd4033df3eafc15efU,
  0x3309dc3fe111de26U, 0xfce811e02611f528U, 0x201c3f10ecdef3e9U, 0x17ddfb271803f72bU,
  0x1f3b16f2223e2cd5U, 0x301d2c0bda0f06f4U, 0x116e602182cf028U, 0x40261f17eb1d2221U,
  0xd5e024383c1d1317U, 0x3200e5030b3cec14U, 0x306f11d3bd725dbU, 0xd6d8f2fbdb07e8e6U,
  0x3bf1fbf02d0f01edU, 0x221afce0e3f22fecU, 0xd3f806163a3c0afbU, 0x21e2923ec13f2f6U,
  0xe8253d09fc070123U, 0xfb17da0ceefe0a01U, 0x3d2621d52e2c373bU, 0x2d0b22e0061d2808U,
  0x330fc080e2a1e04U, 0x32401dd212d2f35U, 0x50d2b29c8cd2911U, 0x18f5e5e30af9d90aU,
  0x323ad63931fcf2dbU, 0xdc1df3e3dbfb4039U, 0xde7dbdcea1ff4dcU, 0x112d070b28e31816U,
  0xd7fc052bdceee429U, 0x3539f3ec1be33230U, 0xfd2139df341fdb02U, 0x371b013d230e3e1cU,
  0xeafe3a010f2dee38U, 0x1a02fb371bf30212U, 0xda0ff31eeeed07efU, 0xf1fd3333ea31de23U,
  0x38d51b2c27153a01U, 0xd9fbf1d92c172c2aU, 0xee2736ee2efc3ef7U, 0xdb02d824e506fd1aU,
  0x2be934e10b031f20U, 0x291e192927f30628U, 0x2a10f90cf4e914e1U, 0x26181cfeef2028d5U,
  0x3b0f2df2db323d2aU, 0xd83fe8111c3a29e7U, 0xeae900e50bfc0de4U, 0x1e0df705db0bdce5U,
  0xd32f25fd27ed2430U, 0x120ce7fbe9dd2a3dU, 0x2f121adfe50b3a21U, 0x2d393a3f20d5dde9U,
  0xf1d6203e0537120dU, 0x9e103230ff42b28U, 0x22db2be30cc6f624U, 0xe40a34382610e721U,
  0x153bde08e00bfd0bU, 0x2e29da263a36d7f6U, 0x1de208f62af4d8feU, 0xdd2831db05e51e3eU,
  0x29e90ce1f5e2f706U, 0xfcfb2bed1b04e026U, 0xfa281d09ec08e9d5U, 0xaf538eefee12518U,
  0x1940d5e508feec2aU, 0xa0a0632d820f41bU, 0x3d120eed0635111dU, 0xf7dcdc1c1a002c38U,
  0x70b0bd9dc341324U, 0x280b3b0a0eddf50fU, 0x2a2b34fff42b1324U, 0x3b31202616ffdd2cU,
  0x160d0a010530f229U, 0xda12f536d521363aU, 0xe6f4eddffa102900U, 0xedf712d6e9110bd9U,
  0xe212181cecd7dafeU, 0x270d2c05e0ea3001U, 0xf6e6fd3537f9e22fU, 0xdf817013eff1929U,
  0x13052f1bdbdc15dcU, 0x904032f1de3102aU, 0x30ec27f1cbf70230U, 0x4f5ff2c043aeffbU,
  0x18e3ec3d3b1fdb1bU, 0xc509212ad3212823U, 0xea2fdad61a14c6e3U, 0x2fdbdd17eadb2d39U,
  0x2cd336240af31df1U, 0x1fcceb1cf9f725f9U, 0xdd0be9dc3a343339U, 0x16f6042905e83beeU,
  0xd8e0edf1143a20dfU, 0xe93e0c30003af526U, 0x1e25160525dcd700U, 0xc36012fdcdcd718U,
  0xfc3513e12606e524U, 0xf9ee362725e2cfd8U, 0x1014e6201410e0dbU, 0x372cfaf30d05dd26U,
  0xe229230fd21a0f35U, 0x3f391e13fc031ce1U, 0xe01118202e1b38e9U, 0xd3e5c9dbdce613e8U,
  0x5f30514fae22119U, 0x153533fc2615e619U, 0x9e60efed2f42113U, 0xe714fc27ff25de40U,
  0x181a3afe3739e6ebU, 0x60b09efe407331fU, 0xfee91206d9f539faU, 0x4dbfe0f07e7ff1dU,
  0xec0ee30e17e8f82aU, 0x1f3e243bffde0525U, 0x1dcde3c4edf1cc14U, 0xed2c011c3adf0121U,
  0x7f1d82d3035e6d6U, 0x2620c32000db0701U, 0x251fec1aea0204f2U, 0x37e412edd7e90af4U,
  0xf4e0fd3c203b123dU, 0x200ad0fd2cda0bf4U, 0xeb060ad6002b1420U, 0xcf0eca07fe0ff0eeU,
  0x3ee91101ef0406e0U, 0x8daeaf734fd2702U, 0x1e2e9ec01fd3716U, 0xec06ee2a00f6eb13U,
  0x36dfea25d706f8e8U, 0xe412ec140220381bU, 0x1612dc1111e82df2U, 0xf4f618ea1f0a11d8U,
  0x26eb31fee70128eaU, 0x3c02c8fe2f36392dU, 0x13feeeececd5143cU, 0x28f5311a3d02e322U,
  0xdcfd311b07052ff2U, 0xece0d0200ce41824U, 0x1cfe06f7cb0de4f5U, 0x3806dc22cf0c0003U,
  0x71709ebedf73ef4U, 0xefc8ccc522221814U, 0xf5e2380cff262a0aU, 0x25e13b35d81e1328U,
  0xdef91511d00e131aU, 0x1cd6e9df240c10c7U, 0x2f3a29defa382df5U, 0x2de0cd220be809faU,
  0x34ddd8f23e061418U, 0xdb390c3923e8fc21U, 0x301e7d8ec122d0bU, 0x2a311b11f71425e6U,
  0x18ea03fd21d9183dU, 0xfe15e4f02ddee8e0U, 0xd21613292016122aU, 0x73ed70712e5e50aU,
  0xe0f6e209f4f7fe15U, 0xc36f5f0f1da1207U, 0x26e8d4f8ef05de2dU, 0x17113a3b2819e4dfU,
  0xe2342b29dbfedffaU, 0x1dcfee16180b123dU, 0x1dfe2c173ae3f726U, 0xf42c30dcf03df60cU,
  0x311fed2fd7372cd9U, 0x12e93e27e0dae205U, 0x3cf2e939061d30U, 0xf51ad6270d281c1fU,
  0xd9f63e11251c310cU, 0xf2e20053bf3153dU, 0xfcdaedf0ee0721U, 0x2b143a0403f70e1bU,
  0x2cfce33afddcd733U, 0x343839fb191ae8dcU, 0x2aeb0926fd0a292fU, 0xf4e13127d81b0f14U,
  0x3e505260437fa1dU, 0x2a21e6ff0e22d91aU, 0xe50b04f434d8db35U, 0x1c36d8e8fcd83528U,
  0xf2fd17ea2ffb37ddU, 0xd0af72bdc1e18e9U, 0xd727e4fde21e1304U, 0x1af1f4e4dc27dddeU,
  0xee16263aee21111bU, 0x110a1d2b0a3a0106U, 0xdb06e5030f333013U, 0x15051be6e61c0a0dU,
  0x12aff3416132e1aU, 0x8ec1839f4fcdb37U, 0x10d3c6f3f2283301U, 0xd90cea04fcd412daU,
  0xff120434f1330e30U, 0xf70ed7d62e16ea18U, 0x1d0ee323ecfc11d0U, 0x2c131bec0deeedc6U,
  0x26f7261237de03fdU, 0xf5f7dc0d1f2423f2U, 0xe40dddfd18d20927U, 0x2e53530f6ebdf02U,
  0x1029e1f33d272111U, 0x223c1efd11eac2cdU, 0xf215fdf8fa3dd9c5U, 0x2e04d70f2ed5eed7U,
  0x1dddd6f20428ebd7U, 0xecdbf6fc08e0e112U, 0xf3ea26d6d7eb292eU, 0x51f04d131fee4deU,
  0xc3112f1e731f5f0U, 0xd26e6f3daffde0eU, 0x35d6efda120adedfU, 0x1e6e923e32503f5U,
  0x3819cf0d19f5f8dcU, 0x251623e93637d640U, 0x1bf70d2bea0405f3U, 0x31e8fbeedcda0aedU,
  0x1b000e3be2350c10U, 0x231000f1e11ee4d8U, 0xefebf1d7f524ded8U, 0xe5ee1fd1ffee35U,
  0xe234db2827e606U, 0x3cdb3209f5e410f4U, 0xe1ec352535f1f6d7U, 0xdd02e50fe8263ff5U,
  0x20fe33312f2333d8U, 0xdddd1ffc40df35ecU, 0x90e33081c3321ffU, 0x362014f62e3e2f0eU,
  0xe9052d061902f230U, 0xffede4082bda0bdfU, 0x2b3835ea20d8ecffU, 0xdffb15da14e0e5f9U,
  0xf4273c3c12e235f9U, 0xfef71b3ae900f804U, 0x152ef512e216eefbU, 0xf901273eea3934feU,
  0x2f1fef26ff010f29U, 0x31390316f015dbdcU, 0xe529221e00f9f5f1U, 0x17071eff2526e50bU,
  0xe82230f7f2f629f7U, 0xd523d7f23636173aU, 0xf80d060dd119f737U, 0x39f51d0427e500eeU,
  0x33fddfec043fd8efU, 0xd4082edafc3e38dfU, 0xfb0d16040ed7e628U, 0x3d08ffdc312b1cddU,
  0xe11e34f9042c323fU, 0x21dfe338e5e33b26U, 0x34dbfc00dadaf818U, 0xfcff3f1d38dc2026U,
  0x2827f30329f5e20cU, 0xe0be6efe8f12414U, 0xe6fade29fdff1a18U, 0x1e00522d5dc3a1dU,
  0x14f3f9fd180708d6U, 0xf019292618fd11f4U, 0x1e2cda2e0b1ff916U, 0xecea2b1f003e16e1U,
  0x23ebe7f1f5f41b0dU, 0x1dfb3614f2e935e9U, 0x350729dbf3102224U, 0xdf723e131d81d2eU,
  0xdee409330524da1eU, 0x31172927f736103cU, 0x501fffc01fd01fcU, 0xfdfe030305010204U,
  0x4ff020004050100U, 0x3fefe0303fd0005U, 0x1fbfb02fdfe00fdU, 0xfcfbfdfdfb0301feU,
  0xffff00fc01030103U, 0xfd0305fd04000000U, 0x203fd0003070503U, 0xfffb00fefbfe0504U,
  0x3fcffff04fbfc02U, 0x50a040704fdfe03U, 0xfdfefd0700fd0007U, 0xff010303fafffbfeU,
  0xb0000fffefb0104U, 0xf704010410110e07U, 0xfbf9fdfd0400f7feU, 0x402fffc01030406U,
  0x50f040c0b080403U, 0xfe010afefa0502U, 0x10000030a080c0cU, 0xb040b06fe0401fbU,
  0xb100e0e0d1b0f09U, 0x1014160e0e020209U, 0x1030004fcff090fU, 0x130f0f0b0705090aU,
  0x1519181e1f2b201dU, 0xfb01ff040b1c110cU, 0x40503070401fbfcU, 0x182a1f0b0f130804U,
  0x90f010207081110U, 0x2ff0505fd05fefbU, 0xf3fd060103fb0006U, 0xf5f6f9f3fbfafbfeU,
  0xfcff06f90000f7edU, 0xf2f6fefc05000300U, 0xe2d9ccd5d7deebf6U, 0xf1f3edf1eee7f1f0U,
  0x3fd01fb0105fcfeU, 0xc7ced9dee7e9ef01U, 0xeae8eff9ebdbc0c0U, 0xfcfbfaf3eeeff0U,
  0xdedfe2f6fb01fe04U, 0xa00e8d1d1d5d1d2U, 0xebe9eaeaeef2fb0dU, 0xfd050300030104fbU,
  0xefeae4d8dbd8e0eeU, 0xf5f9080908160ffbU, 0xfb0403f6ebe9f5f1U, 0xebe0ddf5fdff0005U,
  0x131d12fffffbf9edU, 0xf1edfcfefd08fe0eU, 0xfa050200fe03fef9U, 0xfc02f6fbf5f2e8fcU,
  0x201fd0a0f120ff4U, 0xfb0308fdf7ecfbf9U, 0x2fdf5fc01050402U, 0x30d0afef906faf7U,
  0xf9fb00fd08ffff0aU, 0x50504ff01000706U, 0xeff7fe01ff01040cU, 0xf0f050c120efbf0U,
  0x1ff0b06f6f80208U, 0x6040d13100404ffU, 0x161603eff3f3fe08U, 0x7fe0009160b160eU,
  0x902fd02fbfe0b08U, 0xfdfc0106100f0e17U, 0x10090f1b211a13fdU, 0xfc030b0808fb0c0bU,
  0xe17171907020101U, 0x18130e0412071015U, 0xb020b110e0f110eU, 0x702020305ff080aU,
  0xa0e040303090e14U, 0xb050003030a1415U, 0xfe03ff040603080eU, 0x50c0e0a08fffd01U,
  0xfdfff3fb02fefb01U, 0x1040911070604f6U, 0xfe00010004fb0508U, 0x300fff9050a0904U,
  0xfffaf5fb09fbfe00U, 0xff04030204ff0403U, 0x70a0503fdfc0200U, 0x604f906ff0103ffU,
  0x2fefdf6f8fd0501U, 0x301fdfb0000ff05U, 0x2010705fefb0104U, 0xfaf9f8ff0604070bU,
  0x5feff0003fafbf9U, 0x2fcfefb01fefcfbU, 0x80404fc04fcfefcU, 0x5fefbfc03010200U,
  0x20400fc0100U, 0x5fefc01fffdfdU, 0xff0004000002fbffU, 0xfffdfdfb03fffd03U,
  0xf408d6e62c07f319U, 0x1c3a2ae13210d43fU, 0xe8da3000193bf306U, 0x1f28181f202ae8e2U,
  0xc213c1fff0bf610U, 0xafc40ea3516f5fcU, 0xd81201e1d426f32cU, 0xdc232ad8e0dbec2bU,
  0xfee33c232cfb28d4U, 0x24f7dae32308fdeeU, 0x2316e236f1dbe3efU, 0xf362c2b241d1e32U,
  0x3aea0e2b0013f7deU, 0xd638fa3afe3b1cd4U, 0xf21cfa0903332b23U, 0x2c041f3928303c39U,
  0xd91bfbf2eb242ae5U, 0x83aeb2a01f21424U, 0xf3183ae1ea35fe26U, 0x5c5e8210128ebe6U,
  0xb09273c09e9002fU, 0x3e1bd723ed200540U, 0x19c42d22ebea1013U, 0x3222ea25201de80fU,
  0xdd0de6093421170bU, 0xedb2ae1f4f8f5e2U, 0xe52b18fcdae72bf3U, 0x1107f7013ff5e62bU,
  0xad912ddf31c29e4U, 0x28f0e0d01be1d720U, 0x37ee3ad7cf09ebffU, 0xe12a3ff7d933f90eU,
  0x25f8eafe090f3d06U, 0xd30c2dfaed170dU, 0xf60a090ddad4e904U, 0x3f33233add050df2U,
  0xf8fc1537da3b0729U, 0x3e143bcf03f71736U, 0xf6fc14e03b241ed4U, 0xd312dbf9d831302fU,
  0xec03d4f7daefe4d4U, 0xe2de1d1305360b11U, 0xe2f622e037131eeeU, 0xf9f70afaddfb011fU,
  0xfbf6251be9e6fee2U, 0xd3f307e5da000e07U, 0xef183f263aebe227U, 0x21f914f716eef8e6U,
  0x19d3033336d3ff3bU, 0x3bfa3f220cfcea3bU, 0xdd282635ddf31832U, 0xdc39f5401bd50be9U,
  0xec1a2b323e23223cU, 0xfdd8d92af526e7f8U, 0x19fd0ae5d734f6d4U, 0x21f23dce2fc0c05U,
  0xd53d39e4eadbec0dU, 0x10e2f7e2c720edf9U, 0xa25f10c330cf729U, 0x2a14321f30e62a2dU,
  0xe3d32101fc04e023U, 0x127c8eff3fc0c23U, 0xd2ee03ea29f41beeU, 0xf226dbec400314eaU,
  0x2c00ed7c3e8c0d8U, 0x2f123bee2cf8e5f5U, 0x21f7df12e203ec22U, 0x18c72535dd0212d7U,
  0x5d50117c3071a08U, 0x9f90b2c11e2f721U, 0xfff1dcfddf27fc28U, 0xefc817e0f2170ed6U,
  0xd4dcfc24e2df3a14U, 0x2c39331a21070718U, 0x102513d5090bf9c5U, 0x829f007fbe007deU,
  0x27d6402b23ebe01aU, 0xd0ad5f02b31effcU, 0x401906282702dad3U, 0x13d520dbdef70e36U,
  0x1627e634dadced07U, 0x11d42ef6e01b1f23U, 0xd81c222c0a22d6d5U, 0xe6f8032f3f071d2cU,
  0xf10ff3e50628143fU, 0xfeef2016db3cd9ebU, 0x2032311a29d62d0cU, 0xf4e2f626e314dc3cU,
  0x382d0b043d3de6d5U, 0x2bdd26f1f91327f4U, 0xedfed8e9dc28252bU, 0xe6d30d1a0c302ddcU,
  0x3a3335e32bf1e029U, 0x263efae92710d5f3U, 0x40ea1b380e323ad9U, 0xfbec0ed527f620feU,
  0x2832d3da3a00e83fU, 0xd9272ae106ef3dd3U, 0xfb05fc0707020605U, 0x1fa03ff03010104U,
  0xfa0600f9040004fdU, 0xfafd070204fb0106U, 0x5ff04070304faU, 0xfafd04fefb0507feU,
  0xfc05fafb000406f9U, 0x1fcfe0205fafd00U, 0xfbf8fbfafcf9fdfaU, 0xfd01fb01fdfefff9U,
  0x6fbfa02fdfffefbU, 0xfbfafefcf9fb03faU, 0xefeff6edeaeaf501U, 0x204ff00fa00f7efU,
  0xf5f7030601f9fd03U, 0xe8f2f901f9f8fbfdU, 0xfaf7efefedf4fdeeU, 0xfc05fcfe04fefe00U,
  0xfff6f8f3f2f9fd04U, 0xf2eef5efeafcf5f4U, 0xfa0003040300fff9U, 0xe6ebedf7f804fd05U,
  0x1faf1faf4eff9f0U, 0x704fa04fafb02U, 0xf901ff00fd040902U, 0xf4fdf5eae3e5f7fcU,
  0x11101e1808f900feU, 0x3fb050e0d1d1d17U, 0xe9efeef2fdf90001U, 0x251d1a0805fff1f4U,
  0x171a1e2f23243527U, 0xfa0101fdfb0a061bU, 0x806f8edfaf2f6f3U, 0x1e2129313435311aU,
  0x20b0f1d1c111715U, 0xfefef7f5fb06fd01U, 0x35392f1b0e1210fcU, 0x18000d060d01fc1fU,
  0xfefb03fe04081417U, 0xb0f0d08fe0406fcU, 0xf3d9c8e802190f09U, 0x1080e0d0b05fcf2U,
  0xafdfbff050703faU, 0x4f3ece9071f09U, 0xf6f3ebf0d9c9c0c3U, 0x6ff07fdfa0402faU,
  0xfd0b120efaeffaf9U, 0xece6e4ee112909e9U, 0xfb010204f1f1ebe7U, 0xf1ede903fafaff03U,
  0xd2615f9f2fef6f2U, 0xfbf4e9e5f5f9f7ffU, 0x7fc04fbfb0504f9U, 0xf5eff5eaebf3faf9U,
  0xe3f4f8f0fa26270dU, 0xfd040ef8f0dde5dcU, 0xf3faff000403fcfaU, 0xe716382c0709feefU,
  0xfaeee3d9d7ede6f1U, 0x6010001070911fbU, 0x2c1f0df3fe01fb00U, 0xe0dedbdcd7fe2232U,
  0x1010e03f6f5f0f4U, 0xe0704ff06060200U, 0xd1eb143f29231b0aU, 0x702f4fff7e1dfd5U,
  0xfdfefe04ff060a0dU, 0x232015110c06f404U, 0x2fcedf1dbdf0b28U, 0xff050b091809fc0aU,
  0x1002f90003fc0604U, 0xecd5ef100d14061aU, 0x130d0506080700f6U, 0x6fffe0203040511U,
  0xff050a0305060101U, 0x7fb090b05eeeeefU, 0x1fa060d0d0e0309U, 0xb0d0a070304fb02U,
  0x707f8fbfaf70d07U, 0x3fe0b0cff0d030aU, 0xf80307fffd020104U, 0xdfafdfe000703fcU,
  0x501fd040a070814U, 0x1fb00fffe06ff00U, 0xeaf6fc0204fc0606U, 0x70c0b1507f3f5f1U,
  0x20100fe0c09fff6U, 0x6fefe03fd06fa01U, 0x5f8f3eef3fb03fcU, 0x100fefbf5fcf6faU,
  0x1fd060802fffd02U, 0x5fcfc0001030006U, 0xfa02000201f80206U, 0x40102f9fbfcfdfaU,
  0x407ff0404000204U, 0xfd01fdfbfc0706ffU, 0x30305fffb01fdfdU, 0x7020502fb0205ffU,
  0xea17d60b3a282cfdU, 0x1337dbe12c29edeaU, 0xe608fbeae22712d9U, 0x3b23de320ee22ee5U,
  0x3bf2f1f5ebf22c1aU, 0xed11f6092f24e421U, 0xe72d13edd701d9e5U, 0x3b11fad511f904e0U,
  0xd5f6fb2e1ce4eae2U, 0x2cf90d1fe63ce63bU, 0x437123937dbeaecU, 0xe92730fef8e4fd0aU,
  0xdb2501d5d21d210dU, 0x1cf23a13e5fc1525U, 0x28dee9280237f8edU, 0xf9d7081026f214e0U,
  0x9d7f3d92838e630U, 0xeb252822d3e62d3aU, 0xd6de39e1d6e210d9U, 0xf2d801d2f8e31fdeU,
  0x38f3f1d9f61401daU, 0xf438f81330211c2eU, 0xd5f83ce0ef3c01e1U, 0x1024c8f51231d8f3U,
  0x3be2d2e6e62de4ddU, 0x383cedf2f41c34d3U, 0xcc13d926cd04c640U, 0xdbf410d8ebdafe06U,
  0xd9f0fd262b2c3808U, 0xa2a0bfc17f2f6deU, 0xd80506f317fbc40bU, 0x29f1f8dbfe23080aU,
  0x340bdde50734d3U, 0xe26ebedc726c7c6U, 0x2e2829dfe631f733U, 0xde252506232cf52eU,
  0xf9e01d2ff03ff6feU, 0x3a252cf02afb23dbU, 0x14ff2dd70b07f3fbU, 0x2161e0bff340912U,
  0xa05252cf708d3f7U, 0xf214e7142a1a0df7U, 0xf3eef4f5d52afa03U, 0x2c3011db10f41d33U,
  0x193f3c35d8e1042fU, 0x182cd91de7da0a21U, 0x1e20df201afe00f9U, 0x7db2d0f161ed4efU,
  0xf7120435383ed701U, 0x29dd2105f206f034U, 0xd53625ffe0feea11U, 0xf41cf100f611dcf0U,
  0xf4e21d0cda2cd6dbU, 0xf9d82c19daf2f93aU, 0x29ea19d8e735e0e1U, 0x3506150efc25053cU,
  0xb3305f7270f2cf7U, 0x1319d603ff22e004U, 0xf225f8e30e10d312U, 0xe83c110a143515d6U,
  0xe7fe05e60ff1df39U, 0xeffff70ef51ae00dU, 0xda15eb1001e2f1ddU, 0x330f3610d4132f04U,
  0x1117dbfa1e35293cU, 0x60a3f06e70c370cU, 0x3e8161c0d1fded2U, 0x21f18e13b0134fcU,
  0x381d3bf01cdd1bdfU, 0xf2f2e43703fde8d8U, 0x4e2fdfde50c12f5U, 0xf0fd2af333f525f9U,
  0x16f5ed3c04e6ef17U, 0x361ffbe62be136eaU, 0x331d2d17332becffU, 0x3921f313133823e7U,
  0x3ce71721f0fa341cU, 0xe1da01edfcda3536U, 0xe7eb0efde130281fU, 0xe51924ea3bd2f0f1U,
  0x7330d0a222a3c1aU, 0xcf21cde8ed08ebf8U, 0x152afd0aefde0d24U, 0x243c02e322d22739U,
  0xf1defde1d13280dU, 0x241e19f9ec0408faU, 0xee2adae022fbda15U, 0xd80f1cf5fb0beee3U,
  0xd91f17272f30e4e9U, 0xeffcd7e82cd60e08U, 0x1d31d63bf50433fdU, 0xdc041325081fde31U,
  0x1e31262af6e22517U, 0x270436fcf033dc39U, 0xe0de23ee25e02223U, 0xedecf2d9dd3be0daU,
  0x2a1708fcfee91f39U, 0xf422261be0f32038U, 0x902010302040906U, 0x4ff040507ff070aU,
  0xff0409050a08fe07U, 0xfe06020808ff0708U, 0xff09060907010308U, 0x902050108030009U,
  0x600070206ff040aU, 0x50105fe07ff0206U, 0x503010c05ff0800U, 0x10708090d090e02U,
  0x608fefeff0204U, 0xfe00fe040609fe04U, 0xb0d0906fd070205U, 0x303010505090a13U,
  0xfaff020a04020208U, 0xf8f8f7f8f6fcf8f6U, 0x60c0a0603fdfcf6U, 0x109040000060508U,
  0x2fffefb020203U, 0xf8f0020b0301f4f7U, 0x903090e1102f4f6U, 0xf8fc0700fe040208U,
  0xf60d0a0a090004f8U, 0x160cfef8f4f3fbefU, 0xfd07fe0104071017U, 0xfefe02f4fe020204U,
  0xf5eff9f0f90f01fdU, 0x60b08140d060f04U, 0xf9f6fc01ff030803U, 0xf3f4f1f6f4eaf6f2U,
  0x8070c07ffebeee7U, 0x3fd0905ff020f0fU, 0xf0e0ecf8efeffb03U, 0xe8e5dde7f6f4f5f5U,
  0x102140e04f7fdfaU, 0xf5f3efff0104ff08U, 0xf0f704faf3effbf9U, 0xf5eeeef4e0d4d3daU,
  0x50905ff0808110bU, 0x105fe02f4ecf4fdU, 0xe6e0e2f2fa051118U, 0xafbf2e0e6e5U,
  0x6fefa02ff040302U, 0x41619251d150409U, 0xeae4e5e3e7efe9ffU, 0x50709010204f3U,
  0x1418130808fe00fdU, 0xfefa0911170c191fU, 0x600fafbf2e7f1f9U, 0x7fb080909000302U,
  0x10080c251b231f12U, 0xeefdfa13180e0d18U, 0x3050504fe03f8f6U, 0x3a301e01faf5fa06U,
  0x19190c00020b0f40U, 0xfff2fa061417U, 0xe5e3f9fefc0107ffU, 0xeef00a1f2004f0eaU,
  0xf40a10101815fbebU, 0x60104fe00fef2f7U, 0xf8eddcdce6ebf8fbU, 0x50cfcf3e5e1f5f1U,
  0xff06fbf0fa030401U, 0xe1f1f7f909010804U, 0xeaf2f3f8e6d7dfe8U, 0xf3f500f3fbff02ffU,
  0x7010302050600f1U, 0xebdedfe8ece6f101U, 0xf200fa0902fcf0f1U, 0x5fefcf7faedfdf6U,
  0xe6edf703ff000200U, 0x70befe9ebecfef6U, 0xfaf7f3f4ff000c08U, 0x80a0901070206f6U,
  0xeffcff00f3f0f503U, 0xf4fc0b0bfff4ebf2U, 0x1ff08fc0000f7fbU, 0xfff6f9070105ff00U,
  0xfbf9f50a020805fbU, 0xff00f0f2ff0601feU, 0x906090100090702U, 0x171e0b0e04090a07U,
  0x4020109fefdfb07U, 0x8020303fefe01feU, 0x120c060001040708U, 0xff01080805121916U,
  0x503fefffe090b04U, 0x9fefe00010707feU, 0x90808080c030804U, 0x400070706fe07ffU,
  0x107020a050a0408U, 0x202ff0002010802U, 0x60207050500ff07U, 0x202030202faff03U,
  0x702070908050600U, 0x706030708060508U, 0xffff080900050303U, 0xff09050901ffff02U,
  0xfb02f605fafc0006U, 0x504fbf70506f702U, 0xf70401fcf4f7fcfbU, 0xf5fc0300f9070503U,
  0xfd06f40908fa0802U, 0xf8f608f5ff08f7fcU, 0x1fcf6f7fcf8ff0aU, 0xf5f9fb03f7fcfe08U,
  0xfbfe080a07030708U, 0xfb06fbfd00fb0006U, 0xfefafd040102f601U, 0xf1f8f70504f4fc03U,
  0x70606fd09fcf9fcU, 0x8080503f6fc0307U, 0xf705f7f705fbf908U, 0x2f9f1f1f3e7eef1U,
  0x7fdf9f8fa03f2feU, 0x7f4f800fbfcf9f9U, 0xf0e1f7faf3fafc07U, 0xecdbe1e7e9fbe7efU,
  0xf7f7ff05f603f6e9U, 0xd0e020801f7fcf4U, 0x600ff17160f1604U, 0xfff9fd1001181504U,
  0xf9f7fff9ff03fbU, 0x24301b0f1307f905U, 0x1d1f30211a070925U, 0xf6fd0006130c0710U,
  0x210c030afd0206f9U, 0x1f0e021b23302130U, 0xfa0a0a0d24231a08U, 0xefa06fcf7f70d0cU,
  0xf0081a24322ffc02U, 0xf702fc0411f9edU, 0x3070007fd16170dU, 0xf150a0d07fe00f9U,
  0x80af6dcdcf2131aU, 0xb11fafdfbd8e2fbU, 0x201020004fa130bU, 0xe6ef0af80a1a1910U,
  0xe5e2ced910110bf4U, 0xfef80e110e15fc02U, 0xc0e161500fa0afeU, 0x1511ece6d9dbf1ffU,
  0xfd0400efdae6d3e4U, 0x507080209070102U, 0xd1e3fb0903ff1107U, 0xf4eacef11502ebd0U,
  0xf3fbfbfcefef090dU, 0xe6f6edf70907f4feU, 0x2018f8f8f7eff4f3U, 0xf102ff0b19fff0f4U,
  0xf4f8ff020902f0e7U, 0x1b0ff9efe5e6ebfcU, 0x1a2d170040320affU, 0x6faebf0f6030306U,
  0xe2dee3f0fc0af9f5U, 0x2c2724121004f9f7U, 0xeaff030003221615U, 0x308fff5eee1U,
  0x1bf2e9e3e1e4d2e6U, 0xf8ff190614312e28U, 0xf401f1ece0f9f3fbU, 0xd4d6d9e701f70001U,
  0xc0f24091bfce5cdU, 0xcee1f8f4f7ff0f0aU, 0xf60209fefaf8f9e8U, 0x5fcf0d4d1d3d1e8U,
  0xaf004fc0c110910U, 0xf706fbefdce0efe8U, 0xe1e1e4e2f9f5fafaU, 0xd1514f8eef4e3daU,
  0xe1e1e9e8f5f30600U, 0xf3fa0405fcf8f9f8U, 0xe7f8e9faecebf7f9U, 0xecec060120140af6U,
  0xfafbf3eee4dfebe4U, 0x904ff0008040607U, 0x2112e3d6dae7fefeU, 0xefede6edf6e7ff0cU,
  0x801f7fc05ff0402U, 0xe8fa020a24201d14U, 0xefeffaf11e0607f3U, 0xfc0101fff9e8ebedU,
  0x1e2b110208fc09fbU, 0xf90e0f151c1d2525U, 0xf5f4ebf1e4f2e7f1U, 0x6fd010900f607feU,
  0x2b1d1d2409050a07U, 0x401fffc09101c22U, 0xfc0402f90406f4fbU, 0xc09050707f501f9U,
  0x70f14030f02070fU, 0xfcf90202030a0510U, 0xfa0201fc06f6f508U, 0xfa0af5fb09030204U,
  0xfdfff7fdfafa0402U, 0xf705f4f7f8ff02f8U, 0x404f6030101fefdU, 0x203f5fdfc02f7fdU,
  0xfa0603fcfffbfd08U, 0xfcf7f60803f5fe02U, 0xfdff020805f805f5U, 0xf80208f801fdfb06U,
  0xfaf6ff0803fefdffU, 0x4f70601fdf60304U, 0xfe0500ff0502fc09U, 0xfcfcf9f4f9070608U,
  0xfc0608f8faf6fd07U, 0x908ff020301f6f5U, 0xfdf1f703f1010dfcU, 0x8f80705fff8f0f1U,
  0x6f5f402fe01fcU, 0xfe1d1c270d13120dU, 0xfceff9f4ee00fc03U, 0x40703fffbfcf4f2U,
  0x16000300ebe8ec02U, 0x6fe0c0b161d1617U, 0xf7fcf4f3fefb00feU, 0xe6ddddeff40700feU,
  0x20d10160905f1f0U, 0xf2fdf0dde9e9f701U, 0xfa03f8fbfb0705f1U, 0x1802f002efe3e5f1U,
  0xd8eecee2f6fb1418U, 0xf5fcfe01040c06c9U, 0xfcf2fbecfc05fa07U, 0xd4ff2f22170ef800U,
  0x4fce8e0f5e2d6dbU, 0x3fbf9060808f8feU, 0x2308f6e7f500f7efU, 0xffe2cdc7e80814U,
  0xfb07f5000808fbf3U, 0x908fa04010604f7U, 0xd4ebf9100c0df3efU, 0x6071307200fe3c0U,
  0xf30402f7fcf8ff01U, 0xf00f8f7000cfff3U, 0x2cf8ded7ced9ebf7U, 0xfa03faff0c031417U,
  0xf608f8f303fdf701U, 0xe7e3ecf9f5ecfcf7U, 0xb1215191dfcfde9U, 0xfcfe05f8fcf8fa0fU,
  0xe7e7fb050909fef7U, 0x161afa011a100bfeU, 0x903fd1407fe0111U, 0xff05f905fb08f902U,
  0x213a22fc0efbe3f7U, 0xfff8ece803f8f114U, 0xfb02f908fcfe0810U, 0x306ff020802fefaU,
  0xded3d81d2e313908U, 0xf803040ce3dadcc4U, 0xfd14f9f2f9060705U, 0x2938242516312c0cU,
  0xfee2e2d0d2d1f118U, 0x3f700f5fc060f03U, 0x333829241506fff7U, 0xe0c9d2f5fb1a353aU,
  0x7071d0c07ffeeebU, 0x28160bf5fcf7f503U, 0xe517223e1b232512U, 0x180cfc00edf1d0e7U,
  0xfbff0006fefc0d19U, 0x12131d191c0af5f5U, 0x80cf5ebe1ec1e16U, 0xf60303162d281a10U,
  0x1701fe01f9060500U, 0xf2ecf20a0605020bU, 0x291c2b1e1414f9f5U, 0xf604f80006000406U,
  0x50614081f030808U, 0x120dfae3e8edf6fdU, 0x308f813162f2d1fU, 0x18070a0af8f7fe02U,
  0xc7e4e5f603f70b16U, 0x14241d2014fae9d7U, 0x4030900fdf8020cU, 0xf1f40604fafaebf0U,
  0x14fdecefe3d0e8f6U, 0x1f504f70b211428U, 0xe6e9dff1fafcfefcU, 0xfbf3f1f9e6d5e5e2U,
  0xa0a11141d150108U, 0xfefd01fbf8fffff9U, 0xf2f1ebe6f0fbf3f9U, 0xf8fdf804100efff1U,
  0xfd0402fafbfdf906U, 0x707030af600f804U, 0xfef8050a07f8fffaU, 0xfff7f2fbfdf5f7edU,
  0x2f9fefbfdf702f9U, 0x6fbfaf5ff00f7f8U, 0xf9fdfefcf9f7fe02U, 0x60805fcff07f3fbU,
  0xfae00419e7251a0fU, 0x3039de171b20351cU, 0x13e3d8e3f325172bU, 0x322cd62e18ffe72bU,
  0x3024d32718032914U, 0x50b15d4d2e02f01U, 0xc381327353111e2U, 0x132ef030f1300fe9U,
  0x372ec90c1bf7d430U, 0xfaec3df50d231ef5U, 0x1f1711363e112d37U, 0x2c00e8f5193ed1fdU,
  0xfcfad13e302fe9f6U, 0x7f03620d9061127U, 0xf6d340f3ec2afafeU, 0x15d61621d8fbdc37U,
  0x1124e013fb05ded2U, 0xfc1bd90e09353f21U, 0x25e5e8fcd721fee7U, 0x17cfe717f12131efU,
  0x3effe3201ed5ea1bU, 0xea1c142e023f21ebU, 0x12382dd7e2120bdeU, 0x3be6dd2bffe3f302U,
  0x350227f43c233cf4U, 0xea1c2a3a2bd2df3eU, 0x21ed2e2a3210fa1fU, 0xf7161820fef6fee8U,
  0xf508d60403e2e1e6U, 0xe8da0c38da2cfaf1U, 0x1423fd0226e4fed5U, 0xf7e40ee5e31b2117U,
  0x3afe18de3ddad4e5U, 0x2f6d711ecfd3fe2U, 0xe22fed0cf43ef40dU, 0x51d220fe7fe2601U,
  0x10df373a370b0fd3U, 0x3f210b1715e0e40bU, 0x3202e4daefd8212fU, 0x11f5ddf60aeb2b38U,
  0x14dc172f2034d6faU, 0xfa0c19ed1df13f04U, 0x3a0f0cd9d040e0e0U, 0x362625341d300be8U,
  0xf3ededfe260cecdfU, 0xfc270ed7d7db26deU, 0x25fdd4fffdde1f3cU, 0xef2ceddf25ec3101U,
  0x2521203bf71c3d12U, 0x1df21f2e26f03426U, 0x21ebd23f1019c2cfU, 0x2603d02e25fd0d07U,
  0xd53a3418faf4340cU, 0xd20411edd2e72f06U, 0xc301de1ee9f7d9dbU, 0xdcf81a191d2e04d3U,
  0xce2261704e4e13dU, 0x2e1719d4ecd83632U, 0x33e3d4d919e5e1f9U, 0x1de93ce31af91dd2U,
  0x2bddf4eb371b143bU, 0xf42b02cb250b1fffU, 0x271cd9fe34d713f2U, 0xf409e70635fb2a05U,
  0xf9ce18e318f0d8f9U, 0xfad7f21806d4e6ffU, 0xe9eb231fdf0614d5U, 0xf83dda0b09d91635U,
  0xe9200427010d0e09U, 0x2df915191c27f5edU, 0xe6012b372435063cU, 0xc9231ae82414f1f7U,
  0x7c71f0227cf1b16U, 0x2b1bffe10b26ff1aU, 0xf11024d3300ad534U, 0xecd728ea11d303d4U,
  0x2b32dc3f2fd325dfU, 0xd4ec3bdc3e0fe0efU, 0xd10926fb0b2c08f5U, 0x2be4da150d36d9e7U,
  0x15da0001d8d52bfaU, 0x1b28d3f4fa24dfdeU, 0xfc1d17dfefda001aU, 0xd8eb1fe229d21511U,
  0x1e17fe310f1fe0e1U, 0x3810da163216dbecU, 0xf2d43bd70ad22ffeU, 0x280c3f012433ed3dU,
  0xdb2f0ceb232a03e7U, 0xd22c36092df22f0eU, 0x211f3fdf38eb3c14U, 0xf201f91a3efce9f5U,
  0x322607f8fb1ee104U, 0x18111e0ae6def0d7U, 0xf3e8402a180f06ffU, 0x1807f9d72b0f36feU,
  0xe3f8f1253d3df5f0U, 0xdc1223133bf9e717U, 0x3104eced0e0efd2eU, 0x201bf027e0f2322cU,
  0xc120301f3023034U, 0x1b13e73d23350d17U, 0xe802fd200f3ded07U, 0xdfeee4e11de0e926U,
  0x2807f3f70a13fcfeU, 0x201f1e2424ec2c06U, 0xf5f6d8e507ebd8e9U, 0x1c31ef2a38211d2eU,
  0x32121b25ed14e70dU, 0x2cfb35e7363c0426U, 0xea19371e3bda30f7U, 0x3300253c1122fb35U,
  0xeaf537d9fc23dc0bU, 0x2bfe0e18fbf7de32U, 0xe814e3edfdf3fc34U, 0xf8d9ef1d13311220U,
  0x36e315292622ee0aU, 0xf00e39d720e105e6U, 0x2321faea1311dbf9U, 0xe71beee31c282f31U,
  0xdf3e0309ff1efc26U, 0x120016e3da2b05e5U, 0x30f12dfd2e28e014U, 0x241828e518dd2112U,
  0xdd04f9261140db2fU, 0x3ad93a33faea3030U, 0x15000fe40fee36deU, 0xdb072e09d9ee03f1U,
  0xfff6f71f2cee27d5U, 0x1733f30a3905e91cU, 0x35042ddc3911fb21U, 0x29cd2ad50a1ee21aU,
  0x1ae03b27250ffaf1U, 0xfceee9dc1c3b3d3bU, 0x232009e9d6f8da1dU, 0xe310e3f91123c7ceU,
  0x12fefcd93515e024U, 0x36f2ef0b20182e3aU, 0xd5f1cf0af2eefaf8U, 0x4032e1205ec021aU,
  0x2a0f220e2cf019ddU, 0xe22a0e0fedd82907U, 0x11240a33d800e2d5U, 0xff3517fb17f02838U,
  0x2a27e10c1ff03816U, 0x7fd1521c52013ddU, 0xfb221d11ebec2405U, 0xefea16e53afeedeaU,
  0x1ad108def4d22419U, 0x181a230febe4030cU, 0xf519f217fdda0a36U, 0x2a27dd23dd291e20U,
  0xfd0906efe2c50be4U, 0xe60dec0438fe0aecU, 0x11a37e3d6d83701U, 0x3b2c10db0c162bfaU,
  0x1611001005100912U, 0xf9d8211bedf92becU, 0xf30ad6023ce50e2aU, 0x1cde01424db13d9U,
  0x9e81a1627f2f6f8U, 0x16ef10f61f2716feU, 0xef2434f9f3dc022aU, 0xfae8231afa29eed1U,
  0xdb1f3ef0e0dc0eeeU, 0xbd9ff07f6f7f718U, 0x31231de3fd20ece5U, 0x1df3233cf50cdbf5U,
  0x2ae3eb1c3100342fU, 0xf1dfe714f703eef4U, 0x1c0313c6ff23ea35U, 0xf7242402161328f0U,
  0xf0feead5f7dbef1eU, 0x33e90fd8e5f42329U, 0xd6dbfe02e116d4ffU, 0x371206ee09df3433U,
  0xd7cde2fd3bf5e500U, 0x1cff14fffa172ae1U, 0xf320022333ec16e3U, 0xd16d7f2fefdd701U,
  0x7d7e53932d1fe1fU, 0xe911ed180d181c16U, 0xe3f70d352807df03U, 0xdd17d7e1dae0351cU,
  0xe8dddefdf42900efU, 0x1003e01cfe361e32U, 0x2608e53a30f32905U, 0x20d0f5d73636d936U,
  0x1824f4f4ec0bd924U, 0x1e3202ee0a260903U, 0x39dbf42b0af3340eU, 0x80bf726fb033ce5U,
  0x34da2b1d33e8f0dcU, 0x1433d71af1132ed7U, 0xf13437e0e2f7d723U, 0x1f08ebff35f8f014U,
  0x3f102deb06ece326U, 0x2b3af6fa2ada39daU, 0x18daf324ee02ed2cU, 0xbdae610e7390b15U,
  0x242d0415f0202adcU, 0x63c0e38303fe533U, 0xe3b383d1dee040aU, 0xf32919261c1ce425U,
  0xd92e2bfef10adc3cU, 0xe5fbf1071fff051aU, 0x2a2304fa2fe9d836U, 0xfdd9ec1b402c0204U,
  0x211bf61f150b0228U, 0x192cff232912f6fbU, 0x1e4025dc0af93c1aU, 0xf40f2f2bdc29e725U,
  0x39db300636f9fc2eU, 0x3d361632daf93236U, 0xeb0323e9f0142008U, 0x30d3df25031f0b0bU,
  0x2f105faeffec8d5U, 0x29dd34dbdaf2ff2dU, 0x21dc0023ea121eebU, 0x1113f4eb001331deU,
  0x18f1f3372cf52be1U, 0xf0e6f8e4e01200f1U, 0xccf2d601e9170d1eU, 0x1e2319f4e52ccfffU,
  0xd6efe6163005210eU, 0x3aeee329f8dccccaU, 0xfbc9f625dde528fcU, 0x1de2152a0126f7f9U,
  0x24d508010e2d3724U, 0xeae4fedae6e9e30aU, 0xb22ed1e00ccf823U, 0x1413e81a282cda09U,
  0x1c191117eaf30801U, 0x35e1d5f008e833d5U, 0x39f70200e3e32feeU, 0xf80501e2ed1f292cU,
  0x27f1e320ed0518fcU, 0xffecf6ef102bd8e0U, 0x8f81efae1d7280dU, 0xe93b3af3f905d739U,
  0x716dde2c62021d0U, 0xfb36e80316f8eadaU, 0x2bff3926fbf2ddfeU, 0x2ffe1ddddfae4f3U,
  0xff22dc3933e7def5U, 0xfb25e405f7defd2eU, 0xfe09c5352229de29U, 0xd8f9fe070f22fce6U,
  0x34dcf5faf837fef4U, 0xe31cf9fafb20f21fU, 0xf2d6080314131f30U, 0xfdeffdae9f6d915U,
  0xe8101617e91a0535U, 0x281401c6eb3338ffU, 0xe5031136de272eedU, 0xe7d9190c053c3400U,
  0xf5390fde2a1fd8deU, 0x18dfdaebec00e311U, 0x26f1e937031c1539U, 0x1d060f24df023c30U,
  0xd91b1ff62e343535U, 0x192c03381318f427U, 0x6f70c2a1b363b12U, 0xce5fdd808fbff13U,
  0x34eafd1623de3d0cU, 0x34f4eade31fbdf1dU, 0x1a27f514e835131bU, 0xdb0f1e19e315ed2dU,
  0x21151ae20be21401U, 0xf739e5370cdd1c0dU, 0x1ae6fdf8f4ed180cU, 0x33dfdde5f4342113U,
  0x24f8dffaf9dd07ebU, 0xc6d4f0e9e0ef0037U, 0xdb18d22bd937f2e9U, 0x13fd14171ad50e08U,
  0x213121180ce0f1d8U, 0xf22c070a1bf30b1bU, 0xf8d013e71112dc0eU, 0x16ed2feeda18fddfU,
  0x39d7dfe9242f39e6U, 0xf8130e28141036deU, 0xe63a193efcf72dcfU, 0xdd3422fbd9330629U,
  0x3be3eb0de2f1d8ecU, 0xfff32b301ef22a08U, 0xdd3cdf0d20130d29U, 0xf8241fe9db19f836U,
  0x2636f12410f10631U, 0xf73fd7eaf63eea0eU, 0x132f03161eda30e1U, 0x41e0df1fcf2e53cU,
  0x3131efe7182af738U, 0xdb3f07de3f1ddfdfU, 0xff050103fd0002ffU, 0x40301ff00fe03fbU,
  0x302fb01010300feU, 0xfe03fffc04000303U, 0x301fcfe04fcfd03U, 0xfc03fefcfffffefeU,
  0xfd04fd0002fffb04U, 0x405fd0203040001U, 0x20406fc0003ff00U, 0xfbfa0001fd05fdfeU,
  0x5fdfdfe05fffcfbU, 0x8050301fe0501fcU, 0xfd030603070c07U, 0xfe0401fdfcfd04U,
  0xc00fffc00fd0205U, 0xb060e12150e1111U, 0x605fffc00050002U, 0xff0406fc0502fe03U,
  0xa0e0d1408070703U, 0x130a0304ff0d0f0dU, 0xfdfcff04060b0607U, 0x906090104fd0303U,
  0x310140b06140d12U, 0x4040f0a0c0f0506U, 0x30005fbfefeffU, 0xd080e11090e0802U,
  0xf0a060e0820160eU, 0xfc0400feff01080cU, 0x70801060000fffcU, 0x1126140907080b08U,
  0xfa04fef506060cU, 0xfe010105fb00fefeU, 0xeffbff0301fb0503U, 0xf7fb03f8f8fef5f6U,
  0xfb02070201fbfcf2U, 0xf7fa06fc0302fefcU, 0xd3cbdfdaedebf8ffU, 0xf4fdf7f3eef3f8deU,
  0xfefe0004fdfe00fbU, 0xe6e5f8f0f8f4f9f8U, 0xf6fff4ddc1c0d1d4U, 0x4060405f4f3e9eeU,
  0xf8f0f0f90200ff04U, 0xc7cfc4deebf6f5f7U, 0xf8e8eaf1f3f6f6e5U, 0x104ff0005fe05fdU,
  0xe8f5f4f0eef8f2f4U, 0xe4ebefdcd2e0e3e1U, 0xfcfe0100f5f3edf0U, 0xf9eeeffcfb02fe06U,
  0xe6ece7e2deeeebf2U, 0xf5f1fbf3e8ebdbd7U, 0x5fe04fd04fefe00U, 0xebf6eeeceef7f6faU,
  0xe7f4e1d3dbd9dfe2U, 0x3050407f6f4fbfcU, 0xe9ebf2f6fb000302U, 0xd4daeaeaecfeece5U,
  0xf9f801f4f4f4eadeU, 0x2fefd0100010909U, 0xedf4ede7e7e6fa00U, 0xf7f6f4e2d5dbdee1U,
  0xff06080901f903f5U, 0xeeeefafcfa0106feU, 0xd9dcdedee1e9eef5U, 0xd0605f8fbfff7ecU,
  0xff0502000601060bU, 0xf3e8eaf9fff6f501U, 0x4fe0903fdf6f9fcU, 0xfc00020d0d0b050bU,
  0x304050705fc0003U, 0x1b19121408f7f305U, 0x120b0b02ff02061aU, 0x20005fbfd030506U,
  0x1f17071104060506U, 0x1212091a2634292aU, 0x4fe0105170c060bU, 0x13110d090206fe05U,
  0xe201c20291c2320U, 0x91210070c0b0b03U, 0x601fcfcfbff0505U, 0x1d19180f090c0a06U,
  0x110b060208110a13U, 0xfc01070d0c03U, 0x100601010403fd03U, 0x90e090703000f12U,
  0x405fcff010b0d08U, 0xfb01000505010008U, 0x2fa0b0609000402U, 0x30805110600050fU,
  0xff000502fb0001fcU, 0xfaf903fe030000U, 0x700fd02fefc0608U, 0x302030604050600U,
  0xfb040403000001fbU, 0xff050205fd0404fbU, 0x4faff05fc040103U, 0x20400040502fcfcU,
  0xf1ff312a102deff6U, 0x41cfe0401021bd6U, 0x120432dc1bd8f12eU, 0x3039eae639361019U,
  0x1a193113ff1f1013U, 0xfc3319ebf2ecebf5U, 0xf33ae5eed9fee8fdU, 0xf533e8e4042a132aU,
  0x25290fc70ce01e39U, 0xd2f71a0322d9ef18U, 0x3a05e6d5e0dbf414U, 0xa220e10f01c2dd1U,
  0xfde901e7e00d2717U, 0x1af8f50f2a0ae913U, 0x1613f9d83209dfd4U, 0xd41d1de1dc29190dU,
  0x28262cd816d3fc25U, 0x2a0620ff09f7e33dU, 0xcc2de315e3fd322dU, 0xfa0ddc1afbd40fc9U,
  0x2de73d0b3df101faU, 0xd3d428d118342edcU, 0x13f9e8e9e6d2fa38U, 0xe32d02d3dfd72829U,
  0x2d80f0e30fe2037U, 0xdd1bc70e1e192c2aU, 0xd7f3f6fbdc1f13e9U, 0xc29302d261703dbU,
  0x290e29ff35fa2be8U, 0xf9d8021f28f9fc37U, 0x2ce80dda392123d3U, 0xe82e13e01610d9ecU,
  0xe6f91902e503f138U, 0xdd22192edbd400d2U, 0x14f8e9eb1efa082bU, 0x1e37e62efd262d3eU,
  0x112fd41ed7023839U, 0x4161c1920f22b3bU, 0xf6e0f0ff1c08311aU, 0xfbecfa1be40c302cU,
  0xef06fa08ef22e205U, 0x7152bf5f8d31605U, 0x141fd13a323a1927U, 0x1f111f10d933f005U,
  0x29e22d22f5ec07d0U, 0xef1dd2f11b1ee633U, 0x373cd640391ddf1dU, 0xf9f8d4f8e4ed2816U,
  0x2c1d231fe2d7e23dU, 0xf1d5d4f71c1d2bd2U, 0xef140f053bcfd5e1U, 0xdd13193e2b3507f8U,
  0x36e9f33a21e3f803U, 0xf2a251d0ad91e38U, 0xf8e20609ccfe00e4U, 0x1ce6d5dc222c1c02U,
  0xfdead8fe3722e11dU, 0x23c5c207fe13fad7U, 0xf628df16efe3f5e8U, 0x2a234025372bed12U,
  0xd1d40c032ad7ee3dU, 0xded83ee934d61bfeU, 0xe5ef29dae107f325U, 0xf536273ed23dd52fU,
  0xe9f9dd2014e9f22bU, 0x18f92c3535d9db1eU, 0xdf1c3f3af1111bd5U, 0x261b1636d1253ce4U,
  0x301aed10df2fe927U, 0xe23fed290617d0f4U, 0xd7e8fd11120a27edU, 0x19f8f90e26e0e210U,
  0xd820d3e1eb230ce8U, 0xdfe71ae133f44015U, 0xf0100c33392cf940U, 0xd30e139c5fd2021U,
  0x34e9fd09153f1b3dU, 0xf4ec1f30faf73f3eU, 0x2af6e80e25f7e7e6U, 0xece724dbf8012c26U,
  0xdea1bdffb2bdc0aU, 0xd3fb083de3351f10U, 0xdf1a3d223edcdc0cU, 0xea10d2fd29011bebU,
  0x3e27d92ad3db11f5U, 0xe93420da183be82cU, 0x1ff839e8fee73aeaU, 0x6f0ee40f0e6f103U,
  0xdc2e05292205391aU, 0xd338dce701022cd4U, 0x2e11f8d9e133f1e0U, 0xefdcdbde3a27e3f6U,
  0xf6f3050efb2b2330U, 0x10e0f30c1b241623U, 0x250a252dff33082cU, 0x300ed82717282a2aU,
  0xd42ed301ef3b21f5U, 0x23393ad4e23a000eU, 0x5fa02040305fd02U, 0xfdfbfdfefafcfcfcU,
  0x4020002fbfa0704U, 0x703ff03ff040601U, 0x2040100fa0507feU, 0xfafa06fdff01f902U,
  0x50206fafb0306fbU, 0xff000204fcfffdfeU, 0xeff0f5f4fdf5f7fdU, 0xfffff3f3fef8fdfeU,
  0x304fffffafd03U, 0xf7f6fcf7f8fdfc01U, 0xefe7f5f5f3e7ecf2U, 0x3fffff8f5f5eceaU,
  0x1f7fffe050006fbU, 0xebe4e7eaeef5ecfaU, 0xf4eee5deddddf0e5U, 0x503fefffa03fff7U,
  0xf5f9f7f7f9fe04f9U, 0xd5d4cbd0d4d7ebf2U, 0x407fdf5f5f4ebe0U, 0xf0fbfb04fefd06ffU,
  0xe3f5edf40401ff01U, 0xfafc00eaede7ece1U, 0x8010600fa0405f8U, 0xd0e0905faf7f5fdU,
  0xfa09070c0e0c2b1fU, 0x5fafc01081002faU, 0xfafdfc000005fdfaU, 0x30241e23151406ffU,
  0x1e08060e0f18253eU, 0xfd02fbfd06060b11U, 0x251c0ffafc06fefdU, 0x1822403f2e29292dU,
  0xfffd071b1607fb09U, 0x10909fbff04fbfbU, 0x2717181e26280ff8U, 0x100d06030f0c1e39U,
  0x4080207ff050614U, 0x15100d03010d050aU, 0x1f804fd0f04fafaU, 0x50c0d171504fa05U,
  0x205050e03fc07fbU, 0xecf0eef1eff70a0fU, 0x209020004fde9deU, 0x8080700fd0a0c03U,
  0xfcff060e120a0404U, 0xf8f6ebd7e4efff0dU, 0x6070606f3fcfa00U, 0x1103030506fefb05U,
  0xf1f3fd0f0afffb06U, 0xfef4fb0b0c0af8d5U, 0xff0403ff010b0307U, 0xd0f0b0f0d090a06U,
  0x70e08f2efe0e506U, 0xfd0aff0900f3f707U, 0x100607fdf8fd06fbU, 0xf1e3ec16221f1418U,
  0xfb020c06fffe1c02U, 0xf5fcfcfb01080803U, 0x20231e190d0d0800U, 0xf4f920101002111eU,
  0xfe030408fe0407fdU, 0x120908fbf900ff00U, 0x801050b1c030614U, 0xfc0402fd03fb0907U,
  0xfcfafa0305020603U, 0xfaf6f5030302fefeU, 0x20100fcf6faf5f9U, 0x60401ff02fdf3f5U,
  0xf6fe0000fa0604fdU, 0xdae2f3e5ebdfe6eeU, 0x100f5f7fef0f6ecU, 0xfa02fc0700ffff0aU,
  0xd5d7e9e9f0ff06fbU, 0xece8e1f4e9dfd5dbU, 0xfa0206060705fff4U, 0xfb0bf7f6fa02fffaU,
  0xf9f4f0f2e5eff8f5U, 0x704f8ede3e4e8f6U, 0xfd0500fc05fcff01U, 0xfff3f9f908fef8f5U,
  0xece6f9f8f70003feU, 0x2fa080708ff02f8U, 0xf8fcfdfe05050404U, 0xfcffff0203fdf7f7U,
  0x50208fdfdf6fffeU, 0xfbfe01fefdfffa00U, 0x6fdf5fc0302fe04U, 0x91207150b040001U,
  0x2fefd08fc050a0eU, 0x2fdfa07ff02fc01U, 0xf0e110d03010809U, 0x70206050d080e04U,
  0x20301fafcfffe06U, 0x5ff02fdfdfd0000U, 0x607fcfdff080002U, 0xfb04fdff04fafd00U,
  0xfcf9fefbff02fc05U, 0xfcfa040200ff0400U, 0xfcf901fb0502fa02U, 0xfd04fafaff05fdU,
  0xfefafdf904fcfdfcU, 0x5fdfafafa00fcf9U, 0xff04fe00f804fafbU, 0x2fa01ff02fa0300U,
  0x40002fcf9f90002U, 0x3fe020103040207U, 0xf805f9f9f8fbfc04U, 0xf9fdf8fc030103feU,
  0xfbf5f2f5f8f9f8f7U, 0x403f903fc060600U, 0x300fff9fffdfefbU, 0xf4faedf1f3eff6fcU,
  0x2090a06f4fdfdfcU, 0xf800fcfdfb02020aU, 0x7f800fafcfaf8f8U, 0xfafafafcebf9fc07U,
  0xfefeff0506050805U, 0x700fcf701fcfb01U, 0x160cf70c0b090c09U, 0x11040a080ff9fd01U,
  0xfa02fa0102000e1aU, 0x1080711100901faU, 0xb05fcff0a0a01fdU, 0xfd000d1d120e1412U,
  0xe0efafe05ff0000U, 0x20a0bff1005080eU, 0x12100c0109fff5fcU, 0xfbfafcfc04070a1dU,
  0x14090e0714110804U, 0xecf6e7e4ed141b1aU, 0xfa09100b05060cf8U, 0x151410ff050400faU,
  0xe3f9213331251112U, 0xf2ebf7f0e6dac0cdU, 0xfafcfefef9010b07U, 0x221b190d140b1503U,
  0xe3d3c3e1e1f1002bU, 0xfb0406f1e1e9f0e9U, 0xd080f0cfd00fbf9U, 0xe0d9d8ecfcfb0713U,
  0xdfe9f9fdeee1e5ecU, 0xfeffff01fefc07e8U, 0xeeeaf3ff03fa03fbU, 0xf1fefaf6f0ded0U,
  0xfe0000ede5e7010cU, 0xf7f6f101fb020304U, 0x1fae9cfdce7dbeaU, 0xdeeef50b1206060cU,
  0x7fcf9fbfb05f8eaU, 0xdfdbdde8d9f4eeffU, 0x1111170e0e0cf8e6U, 0xfe02f8eee0f7fb00U,
  0xdae9e4f800fefb05U, 0x1b1508fae5e6d3d8U, 0xeafc07040a1a1819U, 0xfcff05fd0001ffefU,
  0xfae4e3e9e4f5eafaU, 0xd191d12252509f8U, 0x30401f5f5f50805U, 0x4fff100fef801faU,
  0x2a372d120cf800fdU, 0xf6ee00050a111820U, 0xff0302fa05ff0203U, 0x101018180c02f3f8U,
  0xa0a0f292e281c0cU, 0x4fcfb0805f8ff00U, 0xaf9f2fc0401fdfeU, 0x170c090603111217U,
  0x110dfc09100a0606U, 0xfe010200fb00010aU, 0x1fc090b08f6f201U, 0x130e14fd08fc04f3U,
  0xfffe0208060a0904U, 0x9faf70101fffefeU, 0xf1f0e9f6f1ff08ffU, 0x7050d0e131504fcU,
  0xfa02f903f8f9fd03U, 0xfc0d00fafe020401U, 0x130f0909f8eef1feU, 0x204fcfb03070810U,
  0xfdfafef9030304fcU, 0x202050e17040503U, 0xff02010309080808U, 0xf8fa03fdfcfefc01U,
  0x60204f9f801fcf8U, 0xfd0a0a0c0f04060fU, 0xfafb01fcf9050300U, 0xfb00fcfa02fbfc01U,
  0x2fbfcfefffffafbU, 0xfc01f9fb03060102U, 0xfd01010400fd01ffU, 0xf9fc00fcfd0004fbU,
  0xfbf902ff02ffff04U, 0x2f9fafcfdfe0005U, 0x6090000fe000109U, 0x5fb000707040804U,
  0xfd05020700fefefcU, 0x70107fe060403U, 0x908fbff00fc0704U, 0xff0801fafd030403U,
  0xfdfe080705fdfa08U, 0x302fe0504080102U, 0xfdfdf8fffc04fffeU, 0x2fe0001fb060400U,
  0xff030106ff0609fbU, 0xf8f6f700fc060104U, 0x1fcf9f5fafaf7fbU, 0x6ff00000107feffU,
  0x207fe04fc00fc00U, 0x7fefd00fbfbf8f5U, 0x40e080d0901fd0dU, 0xfdfc05fdfbfe01U,
  0xf4fbf1f8020607faU, 0x2faf9fa0200f7ffU, 0x30200120f140cU, 0xfefb02fdfc02fdfeU,
  0xdffe08101003fff5U, 0x191e151a0ff9e9d9U, 0x101fcfcffff020bU, 0x16150c080406fd06U,
  0x14fcdec0c8f00d0aU, 0x80c040a161b1511U, 0xe09fcff07ffff08U, 0xcff91b221e21140fU,
  0x12200e0e100ef4c8U, 0x7fdff0106051206U, 0x1b0b0505050d0004U, 0xe1906dee3ed0c18U,
  0x6060b080b121c11U, 0xfafd040afb010605U, 0xdfdcfd18140ef9f7U, 0x30b1519200c09e9U,
  0xa06fcfdfe081304U, 0x900fde4f3fc0201U, 0xd0dfff0e8ec0010U, 0x4020606fdfd0404U,
  0xf3f4f70007fc02fbU, 0xf0e6000d01fee6f4U, 0xf2eefa03020bfff6U, 0x204fd06ffff0706U,
  0xfcf8eff3eff904U, 0xfb0004fc04ebecf5U, 0xff0106f6f3eff407U, 0xf0ecf7fbfdfbfdfdU,
  0xa11fdfcfb02fdf6U, 0xf9ff030208060700U, 0x7fbfe05020404fcU, 0x803fef8f3f4f3ffU,
  0xfb0911101d2e1a07U, 0xff0202f7fbff0801U, 0xe1e5f8f7fcfe02feU, 0x293f4028050102e8U,
  0xf7fefdfb051117U, 0xfe06ff0700fbf7f6U, 0xc01f7dfe4ebeff9U, 0xe1edfc051f3b391cU,
  0x5fdf604f9fffeebU, 0xdeefef0008030100U, 0x31a1c03fcfbede3U, 0xfcf5f7f7e3e7e7efU,
  0x900fefc070203faU, 0xdfeef6efeaf4f1fbU, 0xf0eae7f6fe06f9ddU, 0xfc0102f8f9f0eceaU,
  0xf5f90204060403U, 0x8f9fafaeffa0001U, 0xf8f3f6f2edf603U, 0x4070403060802faU,
  0xfc06010e10120e09U, 0xebf3eef70c0e0302U, 0x307fc03fdfcfdf2U, 0x1e100c0f020005fbU,
  0x40b0e0912120512U, 0xfd01fff802fdfbf9U, 0xfffb02fc07fefffcU, 0xb110e10101b0e04U,
  0xfcf8000310151510U, 0xff050801faf8f6f7U, 0x7140705fc010400U, 0x1030a0811180c08U,
  0x5fcfaf9fdf8f3feU, 0x6fe09fb0102fc08U, 0x90802fffdff0505U, 0xf9f9f7f806ff0301U,
  0xfe07090005fa0000U, 0xff06fb0107fc0300U, 0xfef0f0f9f3fffefdU, 0x6060202fbfdfbffU,
  0x105000102fe0304U, 0xfbfa0901ff0309fdU, 0xfb08fe05ff050706U, 0x40207010107fdfdU,
  0xfe809d21d2f1aefU, 0xe0001410ee2b1fdaU, 0x280bfe282bef1b29U, 0x21123323d3091d14U,
  0xd903e33120dfe4f9U, 0xde31ed2a2ce3eee9U, 0xf3e22ff6340fe0dfU, 0xf21cf8d8e02a23d7U,
  0x10ad4e60231e9f4U, 0xd3040022eb12ff37U, 0x332ed4f706e0e723U, 0x310127ee0c333432U,
  0x34fadb24e4f32619U, 0x26e7ec31230c2ffeU, 0x37172a18331235e3U, 0xf3e0f00b290bf509U,
  0x28f102d323ee0320U, 0xeeebdff4d72c1a1fU, 0x3502def830fbf81dU, 0xffda1fdc1f1e0306U,
  0x2430e0de00fe35edU, 0xe1e34db0ae312e1U, 0x1508c6ecced90421U, 0x23fdfbd6f3e1e11eU,
  0x2af716eae4efed2bU, 0x11a31dd06e13323U, 0xc8e1efddf0d010cdU, 0xf2220831e41014caU,
  0xe420d0da08f60f1eU, 0x1a180e09dad2e42aU, 0x332a2de3e40415d1U, 0xe7fe0303e711f312U,
  0x21f5310f05e7e8f6U, 0xd3ebe7ca1e2d25f5U, 0x4f50d322a041ed2U, 0xf0112e2417e2f111U,
  0xe73a1cf425c809fbU, 0xf1010624e40bc70cU, 0x151a13fe20e52decU, 0xc8eae611ee25ffd8U,
  0xf5c5ea072e2d27e9U, 0x7d80be2fbf8f51eU, 0xfbf9d9faef130734U, 0xe735f51ec0f6c8fcU,
  0xf2df0a04cdc1f3f3U, 0xf91ef9fd3419e706U, 0xfc1ff618032ed51fU, 0x14e219dd14331e1aU,
  0x110022e22af5162fU, 0xf31519f836fcf203U, 0xcc22e30bfbdfddf4U, 0xeae4fd0a01e3f8f6U,
  0x34d7161b00f5d9dfU, 0x14cdfee0e3edf726U, 0xf70fe91800fbf42fU, 0x18fedf2a142d0407U,
  0x21aff07e11f2035U, 0xf330f6113c3a17faU, 0x352eff29df2e01f7U, 0xebdc31020af1f811U,
  0xf7050a13e9dde71aU, 0x240502e925291fedU, 0xe90d1bdc0fed09f2U, 0xd836db35e81426e4U,
  0xdce4fddd2219fa39U, 0x14f2f9ede2e204c6U, 0xc182ee2d7280c20U, 0x242e17160fe5fc19U,
  0xd90429ecd8e333ebU, 0xfee82f12d5d6e224U, 0x1fd6351c3203dc15U, 0xccf13e7f6d4f228U,
  0xd82c01ee0202d7eaU, 0x2224ef0fd632e7U, 0x122d00f2f0f72a25U, 0xd81cde00e3f2f0fbU,
  0xf5fe02f7dfdff723U, 0xf8e9fc07df00effeU, 0xb1b01db0dd30831U, 0xdbfb3534d7f9f816U,
  0x12622da2d281307U, 0xe6252de92a2d00d8U, 0x3111f81cf21a0de7U, 0x40dffd2d63406dbU,
  0x5f404252ce32527U, 0xefe928d80f07fb22U, 0xea28fef624d31019U, 0x1d1a0030030ed913U,
  0x1a1e1efddae8dc09U, 0x350ee427f41cf810U, 0x834191b0fe5ec1bU, 0xf304d4f0eaff2607U,
  0xa07091d0ad633d9U, 0xd91eeff41c11d5f0U, 0x2e032600d806081cU, 0xdde9fc1d30080c00U,
  0x1b12e1fc32e627dbU, 0x32d904d8d3d8f02dU, 0xff04fefe0403f801U, 0x100f908050000U,
  0xf90808fbf900ff07U, 0x30001fc00050005U, 0x20505fb05f804fbU, 0xfdff0506fa04ffffU,
  0x600050703fe08fcU, 0xf8fdfbfdfefcff06U, 0xffffff0704fafdfdU, 0x8fcff000407f902U,
  0x3070000fffcfe04U, 0xfafe00fa04030405U, 0xfaf8fdfaf2f0edf6U, 0xfb010508fe09f904U,
  0xeaf6fd06fa010306U, 0x908f7f9f6edeaeeU, 0xc0a00fcfef7fafaU, 0xfd03050201f80107U,
  0xe07f0e2e3e4f6ffU, 0xf50003f4f216191dU, 0xfa01030604030cfeU, 0xeae0f2fdfcfc02fcU,
  0x910111f0e08f7edU, 0x180c050208f701f5U, 0xf4fc0106f8fb0a16U, 0x1b1e04fae7e9ecedU,
  0x1115050d13f40f19U, 0xfb0608201c1104fcU, 0xf4f2f2e6f7fd0403U, 0xe8fc1921301c14edU,
  0x241008fa000efc03U, 0xff000500fa060c2fU, 0x402a0df8edeee9f2U, 0xf400f8f2cbd6091aU,
  0xf9fb0c263203f9f1U, 0x2edecf102f70101U, 0xcaedff352f3a3416U, 0x2616fde3f4f9f2c9U,
  0xf1fa00010106131eU, 0x2f222a17160b08f9U, 0xf1f2f1ddc6f11b30U, 0x9101f1509f6e6U,
  0x1a1109fafe000600U, 0xe1eb342d351d2210U, 0x1d080afaf8eb04ecU, 0xfbf9fc00f9000308U,
  0x2b2113120e070df6U, 0xf903fcfbf7f11627U, 0xfcfd0306080d0401U, 0xf90208f4f7fefcffU,
  0xe2ed030d1b180ef5U, 0xfaefedeff0fffdeeU, 0x406080709f7f5f5U, 0x21010f4fafaf904U,
  0xddeefe02dee2fe0eU, 0x7fcf8fbeedcdfd4U, 0xf1f6f0f7fefbfd03U, 0xfbeafe1307fef602U,
  0xf2dddfdccbd8f805U, 0xf7fa07ff02fcfcfaU, 0xb0d0800f001fdf1U, 0xd7d9f81409fb070dU,
  0x7ff00f3ebefdddfU, 0x71703f800000607U, 0xfdf4fd11150b0300U, 0xf0eddbe7e6e2f500U,
  0xf008fffd0805feffU, 0xb0ffe0a0c0ff8eeU, 0xe2fbfafdedf8fd09U, 0xfc03f6f602fadde6U,
  0x90c05ed01f7fbfeU, 0xe9ea090b0b1a090aU, 0xf804e3dde90400e8U, 0xf802fb0306f9fefcU,
  0xef507f5fc09f0f8U, 0xedf8fff4f3e2f2f9U, 0xfe000203f9fbfbe8U, 0xf3eceaeff8f90300U,
  0x81a130e02f9e8efU, 0xb0508f9fc00100fU, 0xff00fe0606fdfd02U, 0xa04fb00e5e9e6feU,
  0xa0d1b3b22262c2eU, 0x4090304fd080a12U, 0xede1f2fa01fe0305U, 0x281723211506f5faU,
  0x808fb0a161b1222U, 0x5fe0406f80004f8U, 0xf8f9e7f4f1fff604U, 0x7191b1e1b090bfcU,
  0xfa04fcfb0207faffU, 0x3f9060300fe01feU, 0xf702feff06f50304U, 0xfffdfafafc06faf8U,
  0x601fc0802fdff07U, 0xf9010206f8fc03f9U, 0xf7f7fe08f9040505U, 0xfefeff07fafd0506U,
  0x525ed34d2d0daebU, 0xe6fdf82ad4e210d1U, 0xd4f92a251cf119e2U, 0xdd3825e8192f2efdU,
  0xd20d132406040eedU, 0xf5f3321c0c27db06U, 0x7f921d1f3f336d0U, 0x11f521f5e20d27f3U,
  0xf9ee02fa11f32012U, 0xdf16d517f6e50103U, 0x1b20281a2d1d18f5U, 0x18ebe02405dd030fU,
  0xfd1010271c1ee11fU, 0xd608e52efad3321fU, 0xeed1e2d531f0d532U, 0x15f70bf71801021eU,
  0x22330e16d43f211eU, 0x1e2c08162f33311aU, 0xc003d211d613fe1eU, 0xd92b1500d4070202U,
  0x14f03813fd1ade1bU, 0xdb16dd1de4ee37d2U, 0xefecd6c7c329dcf6U, 0x1bf51113d000dd0bU,
  0xd5f128fe1d2e22dbU, 0xf817d7fc02173521U, 0xe315fb1608272b1cU, 0x2422f8cc24cbdff9U,
  0x2a023230d6d3f92eU, 0xe30cd106f40fc5d2U, 0xd61ac808d1f5d71eU, 0xdefa11331411f927U,
  0x29ef18c7efd204deU, 0x2eadd10f20dd4f2U, 0xe1defed60ed5ea37U, 0xec0ed1d11d110c01U,
  0x292b06dfe0cbe104U, 0x2e12db0cecf73ae4U, 0xede12a1b27f1fd12U, 0xeee417fcd3d4162cU,
  0xf3d6052701fb1217U, 0x6d3031317dd2becU, 0xfae2d9ec19e5e219U, 0xd8da08e4dcca0406U,
  0x2ce1e4ff160335fcU, 0xd52edf0500dd1514U, 0x1fe9f2341ad81826U, 0x36fadee40c1edd00U,
  0x2df3fb0bf826311aU, 0x2c08ef1e2d0d051aU, 0x1aeadaf3e3f4fe09U, 0xf024f60f0137c7f4U,
  0xdc0e030907020a07U, 0xfe1f3ec2afc01d6U, 0xd3fd053be12b05ccU, 0xf1ed0acfe8fb0e15U,
  0x1f2adb37e1d2d5f7U, 0xd2fdecdb081cf605U, 0x18e5ccd13518ffddU, 0x3638d333f1222beeU,
  0x6c3fdf9e2eb17f9U, 0x1c2e1ef9ea2906e4U, 0x200d2d092911cac8U, 0x2336e2e5ffdce82fU,
  0xee0d192fd3e2d510U, 0x10d05e0cf13f3d4U, 0xd602d8e7fcfd0206U, 0x2df31816211a06f7U,
  0x18d2122bfaeff60bU, 0x3623feeed608ea00U, 0xef091ee6210e2905U, 0x3b0be60be4da18ffU,
  0x2fdf11cbf50b1fe0U, 0xd3f023f8e5f53a16U, 0xe337d51eeb0c03edU, 0x5e8ce1d120b0025U,
  0x3026e723f23427dcU, 0xce02408eceadbefU, 0x1fd027d322e6cff7U, 0x2c231c3a2dd8e313U,
  0x2a360103e2dafae9U, 0xd107d2c424c6f227U, 0x360ee72d1a231118U, 0xf3d324e735291cf1U,
  0x2bf116190aef0cd9U, 0x251527cac817c418U, 0xe2eaee091d3b24d2U, 0x34ed241d15e8d337U,
  0xfbf43737d539e820U, 0x92e3b3127edf8e3U, 0x27182338ff2930e9U, 0xfb37f8eef5e7d839U,
  0xea2631e1d336d5e0U, 0xe4d911f9f71bd4d5U, 0xf1f2f009182f2f11U, 0xea39041035132436U,
  0xf9fa121e34ef11feU, 0x15ebda07d4e53a26U, 0xf9fdfafa0203fbffU, 0xf9f903ff0404fefbU,
  0xfc00fc0305fcfffaU, 0x1fc0306fe0202ffU, 0x501fdfb06fcf9U, 0xfbfa010103000504U,
  0x1050001f9fdfa05U, 0x6f902fa0602fdfdU, 0x9fffdf7f7f7fafeU, 0x100fcfe0201fffcU,
  0x303050003f902U, 0xf4f7f4f8fe04fb03U, 0x1fbf8fb0cfdf6f4U, 0x103fbfdfd0707U,
  0xf301fc050205fafdU, 0xe01fcfffbf4f9f3U, 0x70700f8f5fcf503U, 0xfd0201fd01050301U,
  0xb00fbf7f801f701U, 0xf4e904fe050d0811U, 0xff0009100612fe02U, 0xfdfcfcf40202fbf9U,
  0xc150f16130bff00U, 0x1d0bff0500f30302U, 0xf8fa04fef9020e1cU, 0xf0d0f0ffc01f3fcU,
  0xf9f2f7fe080f00fcU, 0xfa020a13150afffeU, 0x4fafaf1ff0205ffU, 0xf20704030005040cU,
  0x150207f1faebdae1U, 0xf6fcff05040c121bU, 0x10fc021a0f10faf4U, 0xe8e0d2c7e40501feU,
  0xff070e1f170a02f1U, 0xd0903fafaf90102U, 0xe904191f11180c1eU, 0xfffefffae5e1c0c7U,
  0x1f800fafe091014U, 0x1511141814101306U, 0xf9f4e8e90c2e2424U, 0xfa0a1008fe00fdfcU,
  0x17110a06fe03fefeU, 0x22323221130f0818U, 0xf3f20a120401f5f9U, 0x5fafe01fd0201ebU,
  0xe0e130f17000801U, 0x1207fc0926403418U, 0xfafdfbf2f0f2ff17U, 0xfffcfffdfc0306fdU,
  0x21362a070a0506fdU, 0xf1f2effdfef4fd14U, 0x400fafffbfcf9ebU, 0xe08fdf5e3dee5f3U,
  0xe8f4f70d102d2020U, 0x2fcfcebf5f5f9eaU, 0xcfd9d9f1010702fbU, 0xc1c1106fff2e0e5U,
  0xf8fbede2e3f9f802U, 0x30504fb0101f3faU, 0xebd0dcd8d9dfdef0U, 0xe3e6f4f30b0f06edU,
  0xfbf6f0fe01faf8f1U, 0xe8efebf4070105f9U, 0xc11f7dce0d4dce0U, 0xfbf2eefbedd8f0f5U,
  0xfcfdfbfefafef701U, 0xdcebf9fdecf400f8U, 0x3f3e9fb0c09f5dbU, 0xfa04f6fc0bf5f7f4U,
  0xfc04f9fcfd0305U, 0x4fffae6f1f50906U, 0x40efefafd00ff02U, 0x4fe00fdfb050100U,
  0xf2010a04090a01ffU, 0xf5fc0dfe04faf4f6U, 0xfbfcfdf8fc0508fbU, 0xafb0004f90506ffU,
  0xfd07efebfffb0904U, 0xfe0701080609100bU, 0x10101f9fbf8fffcU, 0xfd130c05f9f4fc02U,
  0xd04101602fdf605U, 0xfdf8fcfc0400fa03U, 0xfffcf9040002fbfbU, 0xfdfa02fc0914100bU,
  0x706080905fefa02U, 0x1f8fbfc00fd0505U, 0xb0c0708fbfcfa01U, 0x100f06030c040a02U,
  0xfcfefbfa02000603U, 0xfdfdfafefafc0105U, 0x300080203060603U, 0xf804fbfbfd020b08U,
  0xfb04fffdfd02fdfbU, 0x200fc04060105faU, 0xfa00fdff0401ff01U, 0xfb020405fdfbfbfbU,
  0x3fbfdff08000605U, 0x3fc0602fb050209U, 0x5fc0bfc05fffefbU, 0x403fb000702ff06U,
  0x7030803090004fcU, 0x5090b0a0a0805U, 0xa06fb0905fffb08U, 0x7fc07040508020aU,
  0x15130d0b08ff0b0aU, 0xfc080b0b01010c0eU, 0x605fd06fffd0506U, 0x40b010800010600U,
  0x901070d140a0601U, 0x1010609020f0a00U, 0xfc0202fe06000300U, 0x131b130dfc070206U,
  0x10415140e060013U, 0x500fb06fc050600U, 0xe8fafcfa05fefb0aU, 0x15110f230f1a0405U,
  0xb06040c110f0d0fU, 0xf5f6f503fafcff0aU, 0xf9f9eaebe6eaeaU, 0x50b0602f6e4f403U,
  0xf708040afe090405U, 0xf2dae0e0f7f5f3fcU, 0xf9dfeae7f8fd04ebU, 0xfe09fdfaf901fafaU,
  0xf4f4faf803fb0407U, 0xf3ff0d120bf3ede3U, 0xe7eaebf5f6dfebddU, 0xf806090afd0104f1U,
  0x12f2f0edede3f800U, 0xe7ddd1dfdddbee01U, 0xf8e5e3e9f3eeU, 0xe8e9f0f4fafd0106U,
  0xe8d9def6fffef4ecU, 0xdfe5ecf809edd8caU, 0xf705ff0902faf0U, 0xe4fc04f1eeddf1e8U,
  0x4efddf1ebf3d9e5U, 0x8faf5f7edf2edf3U, 0xecdfe4e8f0f90701U, 0xfa030100fffcfbfbU,
  0xf100fefeebeafd06U, 0x309fd03fd0807f8U, 0x7041618fcebf2f6U, 0xf2f4062323120f09U,
  0xfd050d03fef600faU, 0xff4f000ffff0001U, 0x1d2c1c1f1d0c1b25U, 0x501f4e8ebee0037U,
  0xfffffefc0009ffU, 0x231a20151007f3ffU, 0xe3e2f22524402a2aU, 0x30c0e0e0b09f8e5U,
  0xe0801020503fbfcU, 0x2729231f2f15240fU, 0x110800faf7e9e914U, 0xa0a09080a0b1314U,
  0x10110a151406fe00U, 0xf4e6e2f800130dfeU, 0xfe02090a08010cfbU, 0xb01fb0204fcfcfdU,
  0xfb07fef2ebf40d00U, 0x16030901f6e8e2f6U, 0xdfe090204060619U, 0xe9eb0afc0208f901U,
  0xfa0a0a2a2c03eed6U, 0x80c090e0ffdfafeU, 0x10fef5ff08fd0a06U, 0x2c15f6f8faf60002U,
  0x8020c1416221f27U, 0xb02fb050203ff0bU, 0x30c050f1105060aU, 0x1d18170e1417110eU,
  0x302060bfe0c0c11U, 0x201070d01060309U, 0xf0f3f5f70a0a0afcU, 0x20701090e06f9fcU,
  0xfb0209fc00fb09ffU, 0xf1f0f9f601f7fe02U, 0x1f8f4f7ece8f6eaU, 0x800fe030003fd08U,
  0xf3f9f500090afc08U, 0xece9ddebeff9f9fbU, 0xf700fffcf4f3f9f4U, 0xfefd090afe030bfcU,
  0xeff5f2efff0002faU, 0xebe5eae5f0ecefe9U, 0xafdfe0704fa04efU, 0xfc06fe0a090afd02U,
  0xf3f8f5fcff01fa05U, 0x4fbfe04ffedf2f5U, 0x809020a0b04fd04U, 0x8fe07060a050001U,
  0xfa09ff06fcfefd00U, 0xfcfb0400fefefefcU, 0x2a0edde1042edcd5U, 0x8f3d1fc1c30f02aU,
  0xf5d4f9372b01d51cU, 0x2f0be827e2ec3addU, 0xdeef0febdb2c1918U, 0xe4f60beed9dbf32aU,
  0xecda11d2e010ecfbU, 0x1b18f6e321d62725U, 0xfd2224e8e330eaecU, 0x2107e3e139211c0bU,
  0xd1f6e80bdb29d910U, 0xefaee1b190c0e26U, 0x280526dad5e628d8U, 0x27ff1bece31d24d2U,
  0xcdef290d2a152fecU, 0xfa1d22ec23d2141dU, 0xcd71e39f0f028f2U, 0xfb0ff937041110f5U,
  0xf9e224e9f20b000aU, 0xf50325da0a1b2eedU, 0xd9f70d2bd6ffecfeU, 0x29e133e11c1a14d2U,
  0xf3ff30fff7faff00U, 0xf8ea2ee6c0c21d06U, 0x15d6df0f18e93332U, 0x1033071ffd12e4daU,
  0xca1122ddf403dc1fU, 0xe23612e22beb30ffU, 0xf5271906f6ded129U, 0x20ee0cfb12f0f4f1U,
  0x2ce9edeed1f918U, 0x33f0f3f20ad41031U, 0xee0716e7262ae12bU, 0x2cf2626d5f60e25U,
  0x363a010237eec228U, 0x1ff000063afae7f2U, 0xf6cecb1ce8e5ec11U, 0x21cbd5dadb0500daU,
  0x23f6253af830fb2aU, 0xd3e7e2dce0c3d035U, 0x19d4cde9d8d5e41dU, 0x372dfa3ad4012edcU,
  0xfcd2fbeaff38f41aU, 0x102420ec23fd1b1cU, 0xece1fd331f1cff1eU, 0x36d633f61f18d5f0U,
  0xeedaf2e4d7d90cecU, 0xff25eaf338e0d318U, 0xf9dd033a22edf115U, 0x18d3f13119d2fe0bU,
  0x29352df51021fc2dU, 0x407231aedc12e10U, 0xed39d6f4f226e52eU, 0x14edeb2cf9111a0aU,
  0x160d11d1de202efbU, 0x19f433251638f5d6U, 0xdd38ec20f82eed2bU, 0x1dcf51b0d2de1faU,
  0x2f6e51eeef0d6e8U, 0x1936dfffd024e72aU, 0x2aff3331221e1d08U, 0xe00fd904000f3d2bU,
  0xfd1821fa0621300eU, 0xe229fc25d228d9ffU, 0xdaead7d4230c27e0U, 0x3204272024f7330bU,
  0xe722260dec10dc21U, 0xe2fae8100715dadbU, 0x36f3190520d813dbU, 0x7152334f1e21ae5U,
  0x21d6d9e32d08fff9U, 0x332212123f07f0f7U, 0x272a18cd3e231f0cU, 0x3612faf31c21f9eaU,
  0xe8f2f6d70709e320U, 0xcd3b36f013ecee24U, 0x90c172238372df7U, 0xdf07edd4e5002115U,
  0x18e3dbf702fb14dfU, 0x1020e50c0815e301U, 0x260af336fc04372aU, 0x1dc1da231ce33635U,
  0xdcc5d6f3fc17f6U, 0xf905f2f7f82bd809U, 0xeb1f1d10d92b08ddU, 0xf5e03300212514f4U,
  0xe42b06d4ec2bffd7U, 0xeaf71f39f1dc22ddU, 0xec15f3d8271d22e7U, 0xc222621dcccee18U,
  0x21dcf50f1cff061eU, 0x28fb22e21fd800e5U, 0xe9ef31fd380621f4U, 0x111424d307f2e616U,
  0x3b271be505db17d9U, 0xdd0dd326f0152bf4U, 0xec11fcd0ff19f72dU, 0x28e5080cee1ad728U,
  0x13e22ed918e61031U, 0x3b03f7e93a10f809U, 0x2ef60d01033a280fU, 0x11262a121628f0e4U,
  0x210002e80510d506U, 0xecf1030c0f0f34dcU, 0xe019d42ef617fc0aU, 0x20de12e8e831dce1U,
  0x938fa37f205f224U, 0x3b0bec0a2b0f2b31U, 0xfc362f112a0e1e37U, 0xf314193ee3063ae8U,
  0xff043c2e10222e2eU, 0x1b1de30ae8ecf3f0U, 0x2cdfe123dcece7e5U, 0xe509e1392a2e393dU,
  0x2ce4162422f136f2U, 0xfb142a023303dc3eU, 0xf3d81b2a0811eb32U, 0x2307e4deea1a0ad5U,
  0x142239e239172c2cU, 0x21ff12207fed801U, 0xecf3fced133720f6U, 0x2b02f225ec31e71fU,
  0xf6f51de2fef8ec0aU, 0x1b05ef072b04ede9U, 0x3206d70b2626f01bU, 0xf3de373e15d82ad7U,
  0x37063bf8e01003e1U, 0xfc002d21ff021922U, 0x26070f0c2220f9dbU, 0xdfd6eef92dfa14e0U,
  0xd903fbe4243bed1bU, 0xdae82914361c3ddbU, 0xd2b0f2b0ad63ae9U, 0x26ed01ff2afae221U,
  0xdc1bf429f122061eU, 0xf8393b283aecea2aU, 0xff1ce2eb3cea101bU, 0x1d270ff71cebdbf9U,
  0xd909fcf822dfe9e7U, 0x2de1439fee4e21aU, 0xc8381ae71b3a2307U, 0x3f40a01ea18d2e5U,
  0xeee935e22bfb07d3U, 0xee0131fbe3ee1a04U, 0xedccdef414dbd7e6U, 0xe219e611181bc01aU,
  0x3bd51d272ee0f820U, 0xb10fe15da33fce4U, 0x1623fd340fd001dcU, 0x2c13091fdb0e0a01U,
  0x305ebd4e7143d27U, 0x12f4e528d62df601U, 0x141adbf12330310bU, 0xc1c37e8fe1d1ffeU,
  0xd520e2311a31f33dU, 0x513dc05ded4f9deU, 0x2f28ffdb0ee7c9d6U, 0x12e5050ef73bec2fU,
  0xf9df1bdf1cfa1501U, 0xfe041edb21fce322U, 0x2d1cdd0d2fff34dfU, 0xf5ded9dff5f0ef30U,
  0xcd0190cf13031f6U, 0xde3d00e0ff15f53bU, 0xe52311213c0f2016U, 0xe3f4000f321b1e14U,
  0x1136f0fc2505fdU, 0x3d3227eafce324e2U, 0x5e810eaef1628d8U, 0x2e09ea0df0dbe00fU,
  0xee18eff43631eaf3U, 0x26f617e10d1e2efeU, 0x3de5211ee810f1fcU, 0x2beeedf3de193e28U,
  0x4dc1e3a1638e8e1U, 0xdb321a270520da1fU, 0x10213032ec271007U, 0xdd0fde3cdcfa1a27U,
  0xe71ffdf32fd4ddd9U, 0xe8f701f1e6d9ee0fU, 0xde3e09063ac80b07U, 0x3e26f632f5f930dcU,
  0xd6290e183b351224U, 0xf6e03f312c04e71aU, 0xdc02effc1c071de3U, 0x2bd4f8fded0c1a27U,
  0x24f5f7fed81fe114U, 0x4dd08111ed80bf4U, 0xb2610db34ed2cddU, 0xfa0b13e11e313529U,
  0x1221f6e4002e041cU, 0xde3b00d5f23b34f7U, 0xf13ce7eadef6fd33U, 0x16232ff612153517U,
  0x18ea390aee38e905U, 0xeeee3c02033a2e37U, 0x5fe0800fd0507feU, 0xb080aff080707ffU,
  0x40b060006fe03fdU, 0x3fe060309ff0707U, 0x60009010cff0602U, 0x705fe0b00010601U,
  0x2020afd0a040b03U, 0x1040a0b00020200U, 0xd0a0508050d0209U, 0x602020afe000305U,
  0x10a0b0707fe0903U, 0x1218100b0b020907U, 0x103fffaff02120dU, 0x803fefd06030405U,
  0xb0105fdfd010009U, 0xf5f6f90e0f12090cU, 0xf4fcf0f5fef7f9faU, 0x8010bfe090705U,
  0xfcfefdfbff020b03U, 0xe9dfe6e8eae6f4f7U, 0x500fdf0f6f1f4U, 0xfa03000401fc0b07U,
  0xc7c0d8e4fff8ecf2U, 0xf3eae0dcd7d5cbccU, 0x305040904fefafcU, 0xeefcfaf6fafdfd03U,
  0xccd0c7c0c1d0c9e5U, 0xfd0afbfbe3e1e0d7U, 0xfd00fefe02040b07U, 0xd4dddbe9f901f100U,
  0xeee8f400f2ebe8ceU, 0xff0203fd03fd00fbU, 0x506f8fa090706fcU, 0x10403f5fffae3e9U,
  0x2030601f2fcfafeU, 0xc050b040109000bU, 0x2116f8e3f7faf2f8U, 0x140605fff9080f0eU,
  0xfc0306fd090b0f14U, 0xedebe6f6fffc03ffU, 0xf504ff011c23f5cdU, 0x40518191c100c09U,
  0xf0f6f9fe06080a00U, 0x825f8d7dddfdbe8U, 0x140a03edf7efede2U, 0xfefe03010a070915U,
  0xecefe4f0f0f0fb04U, 0xf4ecf7dce6171b04U, 0xb050a161a04f4eeU, 0xf50504f901090105U,
  0xea11281e060a0df7U, 0x2713fff7effbe9f1U, 0x10008020102131cU, 0x7041008fdfe0406U,
  0xee08f3f9f7122d0fU, 0xfe041b1a190dfefbU, 0xfc0f0a1006040a09U, 0x817140e0aff0af4U,
  0x1e131205fe01020aU, 0xb060b05030f121cU, 0x221f09f70318180bU, 0x4f5f602020b0d12U,
  0x70d151a17040805U, 0x9070d110c09fd07U, 0xa150c19231e1c09U, 0x1b0604fe000a0cfaU,
  0x8fe040a08030c1cU, 0x14160bfbfa060703U, 0xefff12121914171aU, 0x2020c0f1509fffeU,
  0xfdf9ff0907030600U, 0x912080708fcf703U, 0xaffefe5eff3f906U, 0x70a0a050803020bU,
  0xe8dee2edfaf4fe01U, 0xecefebefebfaf4edU, 0xa000e06fdf6eee9U, 0xedfa0803fe070bfdU,
  0xe7e5e5c6c8cde3daU, 0xf9f3edf9f9f6dfe3U, 0x901010b000a0806U, 0xd7d8e6ecf3f80806U,
  0xf1ede3ebe1dddedaU, 0x2ff020503f7fbfbU, 0xf4f102fa0906fd04U, 0xe6e2f0f3eeece4eeU,
  0x202f7fdfae9f0eaU, 0x9040709fdfe0708U, 0xeef9f0fcf2ff0605U, 0xf0f2f4eef3eeeff5U,
  0xa070702fff7U, 0x704fd0009fe0003U, 0x2fafbfb0401fcfdU, 0xfe060000f9f804f9U,
  0xfffd040b01060500U, 0xfe01ff050bff0403U, 0x5050408080905fcU, 0x40a010109fefcU,
  0xfd26fa0f0ae0021dU, 0xe92d3fdf3212f7e7U, 0x3fde382ee1f701U, 0x22d7403eef2234e5U,
  0x2726220120d71c17U, 0x2f2be60507d4fd32U, 0x2cf7e3fbe3fee038U, 0xfadbfe310e0116f5U,
  0xfc261bef04282a0dU, 0x3bfaec26e4f7f613U, 0x341fddd6ff29e034U, 0x3826dfe0032b21e2U,
  0xf71de7002d00f81bU, 0x21fd2d0a132ef122U, 0x2db1afc1d3b3d33U, 0xd1e108cbdc2a20dbU,
  0x3eedfcd7e722eadcU, 0xd6061dd7dff1343cU, 0x361cfa372b2df035U, 0xf5df1b12c4d2e436U,
  0x423ec333bf514fdU, 0x280216e30be1f227U, 0xd8da13350f24260eU, 0xe50c14f33aeadd20U,
  0x132b3033f9d4f1d2U, 0xddeffaf5ea3f1e1dU, 0xf0d2c719e6e20434U, 0x1f24e006fb2f15d5U,
  0xd6f413e93236f93fU, 0xd4ed40d1c53de83dU, 0xd601f611170cd3f2U, 0x2ef1403f13a15ffU,
  0xd2401f63a3d0b2cU, 0xe710d33fd3eb07f1U, 0x181bdd052adf09feU, 0xf7fe1adfe61edd22U,
  0xb30e714f4e6d6fcU, 0x1911dff720d700d5U, 0xfeda30390ee3f811U, 0x91804e5382ffd0aU,
  0xeafbcc010b38f72dU, 0xfbfa2d1d3af4c2e8U, 0x3e1aea1437052bf2U, 0xf82bebff3b1fd609U,
  0xee34f8deec2d10faU, 0x2a0dd7e225282432U, 0xfcfedbd8e4ea0811U, 0x1cd9dae8de10e2e0U,
  0xed1de2f3d723e507U, 0xd4faf320ed0c262bU, 0x36ec3cf6c51ae4f1U, 0xf1d8002df0e1e037U,
  0x22ff34f3133c4012U, 0xc5d10ec4ec3adbd6U, 0x3bfae518db08e8f3U, 0xdbf031fe2f103b34U,
  0xdc01e7e2d3330d0eU, 0x1be6fb0bfed6c407U, 0x1110ff39f8dc0a18U, 0x15f2e1f806f9dfdfU,
  0x100ccc21dbf1003eU, 0xe4031d2923ce2cdcU, 0xe3231934dedd0ed7U, 0x29dfedec32fad3dfU,
  0x280ce315f3cfd6c1U, 0x2fde291deaf0e908U, 0x2ae039281630fee7U, 0xf82c38f9e2fecbe6U,
  0x229dec9151307f8U, 0x37e7f7e32ce6d801U, 0x3100d4ebf82bf0d9U, 0x28cf07f50a020bdfU,
  0xd7da1431e701212cU, 0xde3b40d5383ce234U, 0xfcf0ccfd2005d631U, 0x4d9eae140f1f110U,
  0xe827271c280b0eeeU, 0x3f3b25e80e3c3af8U, 0xe4f9e63921dcfa39U, 0x2e201df23c1bf72dU,
  0xd231eb2433e4ea05U, 0x36f6e40de3e91931U, 0x3226f5d3faefd6e4U, 0xdeff37291b40f61bU,
  0xe5fa1cdee0d4f4e1U, 0xd534d300deea33f0U, 0x3f0e17252f1c0d1eU, 0x2bf13de8f02ff6d2U,
  0xf43426fed7f80402U, 0x353130dc150524f5U, 0x2cf40e063702e43aU, 0xe2fd0e142fe60914U,
  0x1f39e3161c29f12cU, 0xea3a25faedf33116U, 0x1bd529d7e714e1d9U, 0x2eed22f536263323U,
  0xeb35d8eedf18ee3cU, 0x2e9e821e9ffe030U, 0x6273cec2b310f2eU, 0x1efcf51c1bf31af2U,
  0xeffc34ea36db1fefU, 0xdd0706291ed92406U, 0x18faf4fd35112afcU, 0xd915dddddc06eef7U,
  0xee0ebdef9240e3cU, 0x3c32141410e5ffdeU, 0x1cfb241e1c16e6fdU, 0xe9e0ec0bf7f4e1feU,
  0xfc3f152d21f8efe7U, 0x38d8e03f2833f9eeU, 0x2c0d1e040714ed14U, 0xec2524f3212809edU,
  0xe52d21dcd831381dU, 0xe601f0da10f9dc3cU, 0x33a30dae13ae3e0U, 0x30fafd02302feb12U,
  0x1f0d3a3512e9d90cU, 0x1520f8e9eb10e5f8U, 0xee401f22e2d413eeU, 0x34ef161ce9ee2afaU,
  0xfdfb2410edf02b10U, 0xe0e5e00afd210508U, 0xddfe010001f8f53bU, 0xdb22153827373616U,
  0xf30109fa02ecdf07U, 0xf53ceeef08ed0515U, 0xea063d3b310bf0f0U, 0x2e2aede32d09e3f1U,
  0x2be0fdf4070807U, 0x1e4323bf633d8eaU, 0x1eee2ae31c1bdb04U, 0x3a04d3d312143730U,
  0x6291e321e21e929U, 0xf1d6f0e714092b3cU, 0xdeed183c0d39190dU, 0x101c252bf8fe0312U,
  0xe42508172c133525U, 0x30dfd6f4f80231f5U, 0x1737e0f8eaef3feaU, 0xa062b34f220d9e4U,
  0x1af7362f38f1f51fU, 0xdcf9e2f21636e9f0U, 0x53616181f1c1defU, 0xe5070005fd3ce30fU,
  0x113b37e000fedbe9U, 0xd6df020413002034U, 0xe2022c00f4ed32efU, 0x2ad801fde31cfbfaU,
  0x719241ee4dff232U, 0xe70adb0e010efefaU, 0x51c30032edd3320U, 0xdc1c24f41bf7e417U,
  0x2030effa280a071fU, 0xdddf22ea14e31a0dU, 0x431f71b28e51b1dU, 0x1118dbeb1edb21ddU,
  0xde27dd2036320d28U, 0x3dd91e3eef31f825U, 0x2ceddb23f3dbe7f5U, 0x603d5f8f8231a22U,
  0x36f2fc30f12c2edcU, 0xfbde3603032b0c36U, 0x27ed28e719f138f8U, 0x902e924d409d7e9U,
  0x323bef300eec1334U, 0xe50601fa08eed70fU, 0xf2523e1e6f2e930U, 0x1924e7e3302af1f7U,
  0x4ef12f60d0b31e3U, 0xf6f0140f361a1322U, 0x26382c132fe33107U, 0xfe36f93a3801ff40U,
  0xe242bebf9e104f5U, 0x222ae43c09de1202U, 0x2cfae3271dfee7d2U, 0xeed0522fc272c00U,
  0x425dde9e0f42a0dU, 0xff27d8d0e2221dddU, 0xf42b2400340e0b3fU, 0xdff2f30a2e182ddeU,
  0x1ac1f410ece7def0U, 0x2dd9fbebe20f2c22U, 0x113d0d1514ea08feU, 0x2a220eff2e3ef621U,
  0x3aeedbf4201213dfU, 0x2614f4120af2e5f6U, 0x1e3ef922e63620dbU, 0xb0d1cf1e9f1fbfbU,
  0x21dbff0b2414fcf2U, 0x3cfe1034ee22db2dU, 0xe8eee312e10bf422U, 0xf233f3ddec292327U,
  0x17243cf5370fdfffU, 0x19260e112fe6de1fU, 0x2c37fb0cf5eadd26U, 0xd8383a0d160c22e6U,
  0x36ff04dd0f1107d5U, 0x31f501f4372def22U, 0x5e2e03508051f15U, 0x7e8edf710dee3f8U,
  0x1231dc2311dd30d9U, 0x1fe29312401d80aU, 0x2fd6dd0219eb2dffU, 0x31d6ff232d04e820U,
  0xf6181f32f12a0937U, 0x60c290eef1a23U, 0xe9e036de2a1438faU, 0x193302e604f70a0aU,
  0xee4280be41c0d0cU, 0xd708ddeb11d72ed5U, 0x380f2605fd202a07U, 0xeef10e231a313803U,
  0x9262101f3f3ce29U, 0xf8071e3630e5d820U, 0x2be6ec2018002b23U, 0x1d19d91436eddddeU,
  0x31ea10e2f7dffc1aU, 0x2f2df3902df001cU, 0xe71c3713f1fa19edU, 0x1f0ef30f1916f0ceU,
  0xdc100aed2210190eU, 0x3a2d143f2122ebfbU, 0xebe4e4d1210c2ae9U, 0xe7d9f227efd4fad0U,
  0xff1df3dae0e6df2eU, 0xd1332a172116332eU, 0x2e32dbe6f80c1411U, 0x11dddf32cebda10U,
  0x35e2d82318e01313U, 0xe8e723fed60be7f2U, 0xe51929d411d6f91aU, 0x18e8ece1e32aee1eU,
  0x21dce8def11efe33U, 0x33e620c0e0eb2a2eU, 0xde1919d72ae53407U, 0xd6d217261d2502f9U,
  0xd4e0eae90bd3350bU, 0xfd3535d508f51f1eU, 0xddf10ff0e420d5feU, 0x2130fb16faddea1eU,
  0x1ad32e111503e32eU, 0x32f01c2af237df17U, 0x11c4c0ff1f16e60eU, 0xfb2b1aefdc121f2eU,
  0xad8e70c251519ecU, 0xd8ec01d51bdaf10eU, 0x513fd19eceee4c5U, 0xe8ff36f2e4f41fd2U,
  0xfbf32f032907f831U, 0xe42b032eece31ae6U, 0x1708d81d13f7e4e1U, 0x222831e31b121bddU,
  0x300e32d926d6fb31U, 0xd8fadf0714f3fa09U, 0xfb20d7f6e031e723U, 0x38edd7e32c1e2000U,
  0x2f0f28e71cd8fbe0U, 0xe1113123f5d7dcebU, 0x22efdfe4331bf0e3U, 0x311003ddec1e31f4U,
  0xf3061b30f23d3d02U, 0xf401f9de1c013224U, 0xe1f6051817e9e8f7U, 0xe7e73311f8d8dcecU,
  0x273c26ee340a13feU, 0x30112e0f304039e0U, 0x51a02fb05ea140eU, 0xc25edf4dee41a0eU,
  0x18052ae11ef3e607U, 0xe3f9151719d5d8f0U, 0xd9eadbe11235021aU, 0x8dbe92bf90dfb2cU,
  0x37ea09f3102af32eU, 0x22d5e829360afb23U, 0x3c405d40723f2f8U, 0xfd2c27d91af43405U,
  0xff1fe7eaec201607U, 0x21eae603ecf1dadcU, 0xd5ed17fee520dcd0U, 0x28f6da3808ef3a0dU,
  0x63a3a3aee070b00U, 0x22e7e6ddebe331dbU, 0x39e90ffa2df0daU, 0xeefde9261c3811efU,
  0x5270b03f2e037f5U, 0xfaf5e3f7dfee1f12U, 0xd4032d2335ee2719U, 0xfafbf6f8390706f7U,
  0x1e20b17e502d726U, 0xf734ee19d4e319f4U, 0x15362d12d9d9e4ebU, 0x3737d6fb06371aecU,
  0x24f20de4ed082f02U, 0x35ecf727d424f513U, 0xf6faf9f9fb030500U, 0xf7010302f801f7feU,
  0xfffb03f602030203U, 0x4fffafc0201f702U, 0x2f8fcfdf801f7U, 0xf701040003fdf6f5U,
  0x5fd05f9f9f504f7U, 0x403fc0102f70205U, 0xfeeff4fef2f8fcfeU, 0xfcfef5fcf9f6f5f3U,
  0xf5fcfafbfcf803f8U, 0xf9fdf20001f4f501U, 0x1fbfff5f8f9eff9U, 0x4fb01fbf9f40102U,
  0xf6f9fa01f800f5U, 0xf0fefdfd03f6fcf6U, 0xf4f0eeeff6fa00f5U, 0xfdf8fafbf702f904U,
  0x1a0b0900fcfbfdfbU, 0xe2e9f6eaf5040f1dU, 0x10105f9f5f2e0e6U, 0x3f6f9f8f6fcf505U,
  0xb10152226180c10U, 0xf9eeede1ecf2fe01U, 0xfcf7f9f5faf90704U, 0x18130911050601f4U,
  0xe80801fa16102117U, 0xf8f7020e06f6ece7U, 0x50ef5fffd04f9f5U, 0x207fc060a03120aU,
  0x1901fff0f609f90dU, 0x1f9fdfb00fb0f1fU, 0x1208080f07130302U, 0xc0f14f9e4eef606U,
  0xf50004191e121b0eU, 0x1517150bf9040103U, 0xedeee8040c0a190fU, 0x282b23220c0e13feU,
  0xfcfcf704f8050f12U, 0x1614161d25251408U, 0x1f181d09f4fbf90fU, 0xfd0708121d262130U,
  0x15261813030105ffU, 0xecea02f90909070fU, 0x11241b292f171a05U, 0x703050201f8fe07U,
  0x1104091125192815U, 0x1b14031404ea0a09U, 0xfbfafff9ff131418U, 0x1c20190d0505f503U,
  0xdf30710210ff504U, 0xfe0a0215191c1102U, 0xf8fa02fcfef3fdfbU, 0x1d2000fc10070b09U,
  0x101b19fdeddfe403U, 0xfcfaf4fd05fdfa12U, 0x10afef901f7fff6U, 0xd9c0d2fa060b0a0bU,
  0xfe06fd0bfb061df1U, 0xf6f7ff010000edf9U, 0xedf1010ffe0d05f5U, 0x4111e07d8d0dde6U,
  0xfbf7f6f4fa010d07U, 0x514fef0f7f60305U, 0xe5dff2e5fff2f70eU, 0xfb05030c0c080a02U,
  0xfcfef7f6fbfcf2f9U, 0xf8f5f000fd0e07efU, 0x7fefde2d6e9effdU, 0x3fafbf0f4fa0c00U,
  0xf7f900f7f0f8f6f9U, 0xdde608eaf9f6fafeU, 0xf9f4f6fe06f1f3ebU, 0xf4fafb00f8f6f8f5U,
  0x101faeffc03f2feU, 0xf3ecdeeaeedfebf1U, 0xf501fefff2fdeff8U, 0xf3f9eefcf8fdfa03U,
  0xf5f003050604ede6U, 0xfb03f3f2e9e1eaf9U, 0xf9fffeffff04fbf6U, 0xf0df7faf1f2effaU,
  0xebf3020405100f19U, 0x20102ff01faf9faU, 0xfafbf6f8fd00faf9U, 0xa1223181611fe09U,
  0x80504fd01fa0b16U, 0xf6000402fa00f9f9U, 0xa0cfcfa0608f8fdU, 0x110911140f181113U,
  0x5f8fcfa01000801U, 0x3f9f7fefafffefcU, 0xa0f150400fbfffeU, 0xf9fa010305020b03U,
  0x404fa02fafff8f9U, 0xf7fcf8fcf6f702fcU, 0xfdfbfe02f9fb04faU, 0xfc04f703fafaf704U,
  0xf90202f9fa02f8f7U, 0xfa0002f8f9f6fff8U, 0xf701fef9f7fcf9f6U, 0xf8f6f9fdfaf8fafcU,
  0x3f902fcf70303faU, 0xf8fdfe02f9fb03f9U, 0xfe03fafaff0003faU, 0xf7fafdfbf8fdfbfdU,
  0x801030304f9f6ffU, 0xf70302fdfffd0007U, 0xf6f9f9fcf7fdf8ffU, 0x3ff030002ff03feU,
  0xf0f0b0e0a0e09fdU, 0xfb030104000207U, 0xfef600030302faf7U, 0xf0e070400080600U,
  0x4fefc000105110eU, 0xfafa00fefb020001U, 0xe0503fcfbfdfaf9U, 0x1f181d08fa08050aU,
  0xfd0101fd00020711U, 0xfdfdf4fff4fe02fdU, 0x7fc0906fd01fffbU, 0xafbf6121c1003f9U,
  0xf2000101fafd0905U, 0x5fdfa03faf6fef2U, 0x405fbfa0f0d01ffU, 0xf9fb0a0f0a0806faU,
  0xf7f6f9f8fdf5f702U, 0xeffb0a05f7fcfbf3U, 0x5010e0c03f3f2efU, 0xf3f9fefd02000c0eU,
  0x2efedf9f1f8eef8U, 0xfcfdf0e6e1f2fe08U, 0xf702000704080d13U, 0xfbfcf1f7f7f400feU,
  0xc0d1e501f9f1f603U, 0x1fcf9050501f3cfU, 0xf7f5f7fff7f6f801U, 0x3020002fa01faefU,
  0xf0c01e4c1d6ec04U, 0xf9ffff0104f0fdfcU, 0xfb05fef1fbf6f8fbU, 0xe4f80f09130ffdf3U,
  0x2fcfa000a0b07f3U, 0xf6fa02f8f8fbf4feU, 0xb0911090a0a0bffU, 0x70b06040d091c0bU,
  0xfdfbf3fc02f4f8f7U, 0x140c0807fbf5fefbU, 0x121c211112120e10U, 0xedeeeeecf0f6fd05U,
  0x301f7fcf7fff2ebU, 0x12060e090c060005U, 0xf4f8f301f5212b26U, 0xf6f5f7ecebf2ebe3U,
  0x400fbf7f901fa01U, 0xe8f80e1c160d0302U, 0xf2fcf6f1f800fee4U, 0xfd04f8f6fef6f9f4U,
  0x14060b15110f06fbU, 0xff060f00efebff0eU, 0xfdf4f6f1f4f4fdf6U, 0x181a1006fefafe03U,
  0xfdee000c09090b11U, 0xfff5ff010e090c11U, 0xf7fefcfe00f3f2U, 0xe121a1a2010f9U,
  0x1a180e110af0f5f7U, 0xfcfffefd04030c0eU, 0xe0a0bf703fdf6f7U, 0x1407f4f1eef7060dU,
  0xff08101016211618U, 0xfdfef7f7f700fe01U, 0xf0e9f1ff030cf601U, 0x131515161c1714f9U,
  0xf8fefef6fe0b0e10U, 0xf4edeefc0001f8f9U, 0x91214080ef7eff0U, 0xfe020b0912141009U,
  0xfa030101fdf7fefdU, 0xff00fcf6e6edef03U, 0x16140f0f0a0a0a05U, 0xfdfaf9f90702120eU,
  0xeef5effa02fc03fdU, 0xb0c101b14110202U, 0xfa0301060b0e0315U, 0x2f9fbf8faf6f6f8U,
  0xf6f8fcf3f7f2U, 0xfe05060707000efdU, 0xfffb00fdff020304U, 0xfffff7f9fff9f8fbU,
  0xfdf6f700f7fbf6f7U, 0xfdfbfbfef5f9U, 0x2fc03f801fef9f9U, 0xf600f8f9f7f8fc01U,
  0xf9f901f5f9fc0103U, 0xf7f9f6fcfdfefff9U, 0x2b30fdf912d8dfe1U, 0xe2e707fa0b313ffcU,
  0xf9171e0c0a08d80cU, 0xf02d14e821fbf900U, 0xd0f232e1cdb28d9U, 0x2e13ea222ad9e6fdU,
  0x2f051d052ff3d3f4U, 0x15ee2131f2d91af0U, 0xd1eddf6d6fd1437U, 0x2a30f0fd090319ffU,
  0xe4e52525062cdf3bU, 0x37243b16243bd3f2U, 0x1239d60e08392a1cU, 0x32d8ff3d1c0cf426U,
  0xf0d341df72d1701U, 0xf034d733e3d82cedU, 0xf13fe7f7102e3e18U, 0xf80d3a0ffef73fe9U,
  0xc2df2f4dcef2704U, 0x2aeb052ae2ffeffcU, 0x3100ff2a37072e15U, 0x93b1b0ad5f7f833U,
  0x2c08fd0017c71221U, 0x2ff6ec20dde31e28U, 0xde02fed42e31351eU, 0xfa2b08c0e51c1e10U,
  0x19c4fb122817dc23U, 0xeefbd702d60de2ffU, 0x320c3e1714d5193cU, 0x14c21cc0d1f1d8d4U,
  0xe6101aefece62827U, 0x12f71937e332ea2dU, 0x1e1ac81c202d1df5U, 0xe23b2bfd07e8e8d0U,
  0xdce41829e608da0bU, 0xecdafde926032fedU, 0x43c1839d5e10b1fU, 0x2f27efede30ce337U,
  0x3922de23d31f0533U, 0xc1fdfd26d7fa283cU, 0xe2dcf001093705caU, 0x3f1719f9fb15fcf6U,
  0xcf0c0aebf92d2914U, 0x9f1d91008e8011eU, 0x1c0408eb2713edf5U, 0xd530ead7e0ebec15U,
  0x1af11509271c21efU, 0x1c3f2903d6efeae8U, 0xfafcffe9202d1208U, 0xe0f52106d517ed18U,
  0xebdbe3dbfcc6ca36U, 0x1c33f1cbd522e0e2U, 0x30182531e03af122U, 0x20f27fb211713f1U,
  0xc20e709d2360307U, 0xf6f8e5de0cfdcfd1U, 0x3b24dbf30416e9e0U, 0xf90b01fb2ae8120bU,
  0xd8f61eebe5190b08U, 0x17ff10300ad8f40fU, 0x1e0117ef2b241e11U, 0xe6daf815d602d303U,
  0x1313323237da060fU, 0xdf72ee432011115U, 0xd40f16ec210112d5U, 0xf834dac123e738feU,
  0xdbdd1d1a2ddd3818U, 0xfc11d2cf80dd816U, 0xcad81823f1eee9f4U, 0x180d3bda3efbcfeeU,
  0x27351a3f1026eeefU, 0xf209f3e300d8d5cbU, 0xd53701dc0d1fd904U, 0x12e50036d8ec2417U,
  0xcae9d82b183000e8U, 0xfa280d02d6f6cc19U, 0xf4f70214fe2d2222U, 0xf00be62329e4e63eU,
  0xdf9fbdff6e4f4d3U, 0x392c2d0fffce2602U, 0x403c1d11e7012820U, 0x23c5ebe520ff2321U,
  0xe2340602ca1825c7U, 0xf1141e08f422d315U, 0x2c18e7ee28f22c11U, 0xfef4172bc62808d4U,
  0x30ffe2faf6dcf0f3U, 0x2e923defbfbdef6U, 0x1f3d340302042e1bU, 0x35e520f005363ee7U,
  0x2a0d1332e5362e1fU, 0x3ce032f5d6d8fedbU, 0x39dd1007fb28e332U, 0x3119d62bf3ed2401U,
  0x27eaff1bde391412U, 0x2128141925f42c33U, 0xf3f2f429f9d526f4U, 0x162b1d3be9e5da3cU,
  0x3ff0302fdfefd04U, 0xfd0403ff00fd06fcU, 0x4fdfdfefefd05U, 0x402fe0105010004U,
  0x1fe04ff00fefffdU, 0x502ff04fcff0104U, 0x4050305fc040504U, 0x6fefdfc03ffffU,
  0xfdff000008070706U, 0x60104050408fefdU, 0x50404fdfd03fdfcU, 0xf7fc0301fbfe0404U,
  0x80d04faf5fcfcf9U, 0x20305060c0809U, 0xfef9fc0402060101U, 0xf3eff2eaf0faf5fbU,
  0xfc0204090b070dfdU, 0x3fd0406fdfffa01U, 0xfcfbfaf9f9fefbfcU, 0x130d0cfc03fff4f8U,
  0x2fe00f7fd030609U, 0xf9fbf7fdfc030404U, 0x1205eff7f7f9f6f6U, 0xfdfdfe02fd040301U,
  0x4010005040201f3U, 0xfd04faeff0f4f6fdU, 0xfd090efa0bfff9f3U, 0x1fafefcfc0506f9U,
  0xf6f5faf9fefffc00U, 0xff0a1605040403fdU, 0x2fbfcfdfbfa0501U, 0x3fd02020101fbfdU,
  0xf5f9fef4f3f0f9faU, 0xfefaf1fd09100e00U, 0xfdfef8fd0a01fe00U, 0xf9f8fbfcff0403fcU,
  0xb2515f8f5f205ffU, 0x110a1007fb03f6eeU, 0xfcff05030101fb04U, 0xeff002000901faf7U,
  0xf9f2e0e9fb1615fbU, 0xff00fb0f20161308U, 0x502f6fe02050105U, 0xf6071404eff00001U,
  0x261e13fcf0f1f8f2U, 0xfb02fe0305fc0016U, 0xfdfa0404020afafaU, 0xf5f7fa0102041207U,
  0x3010211170ffaf3U, 0xfefe06f50100fe05U, 0xf8fe1513120904fbU, 0xcffefedf1f1f0f6U,
  0x400fefc0303060bU, 0x1d121a02fcf7fdfdU, 0xf4f8f4f4effb1123U, 0xfffffe0500f0eee9U,
  0x1f9fbf5fb0404fcU, 0xf2e7f81f322d3115U, 0xf9f9f1edecfcf9f7U, 0xff0504fefe000003U,
  0x313f351e09fafcf6U, 0xf1eae8ede7dadb13U, 0x3fbfffdfff9fcf9U, 0x6f7f8f4fc050403U,
  0xf2d1c9fe1a344020U, 0xfcf6f9f2f6ecebefU, 0xf70404fcfd05fcffU, 0x10313a1d0afef6fcU,
  0xf3e9e8f0f1e0cce1U, 0xfb01fefa030302ffU, 0xe0903fafa000003U, 0xf5ebd6e802301d14U,
  0xfa0002fef2ebe4e2U, 0x2fc0503fd0600fcU, 0xe121b17180e07f8U, 0xf3f2efeae7f1f1f4U,
  0xfe010004fa0302fdU, 0x12100805fdfe02fdU, 0xf3f4040f0f1b1913U, 0xfcff00f8f5ecf3U,
  0x1fcff03fefffefbU, 0xe1817170c0500f8U, 0x4fef3fcfdff1312U, 0x1fcfd02fe01fcf9U,
  0xf0eef9f9fd050301U, 0x1050911100a00fbU, 0x60100fbfd01fbf8U, 0xfd020505010601ffU,
  0xfc00f8f6fbfff900U, 0xfef8f3f3f7f7f7U, 0x40505fe0404fafbU, 0xfbfc06fd020003ffU,
  0xf9f9f9fa01fc0100U, 0x2fdfcfefdff0304U, 0x40204fcff05fbfeU, 0x2030000050100feU,
  0x403fefefdfb03U, 0x5ff0003fffdfcfdU, 0xff0a04ff0b0c0bU, 0x90400ff050c0a04U,
  0xff050306ff050c01U, 0x20b050302070405U, 0x5030b03fe0b040bU, 0xa000505fffe0b02U,
  0xbff0701050b0207U, 0x9040b0709010800U, 0xa030d0a0c00060aU, 0x104010a03fd0409U,
  0xcff090aff060705U, 0xa0705080b090000U, 0xfefa060104020c0eU, 0x4060506fdfffcfeU,
  0xb050c060402fe03U, 0xaff120a100f0c0dU, 0x503fcf7f1f1ecf0U, 0x8010208050801fdU,
  0x4fe07fd0d050c02U, 0xe7e5e3fd10090cf8U, 0xa0302fdfeede2e9U, 0x50b0a0801060007U,
  0x121e05fc00f5f0f9U, 0xefe8e8ece6f6f106U, 0x408060b06fefcf5U, 0xf8e6e6ebf8fefe06U,
  0xf0eb0c1726380ffbU, 0x90202eff2edfbf8U, 0xedfbfbfefefe0507U, 0x2f3816efe4e2e3e8U,
  0xe4e5ede7dee6f50eU, 0xfe0c0803fdfaf2U, 0xdee8daeae4ecf4fdU, 0xeae7d5f935401dedU,
  0x508faecedede8e7U, 0xe2e4f8f50507090aU, 0x13313002fde1e1e7U, 0xede9ecebe4e5dce3U,
  0xfe0409010208fffbU, 0xdf9e7f6f2ecf5f9U, 0xfbfae0df032d2e19U, 0xfef0fbfaf0f6U,
  0xfdfbf7fdfc0cfe0bU, 0xf0271823191e0004U, 0xf7fffbf1f800e5eeU, 0x7080cff0203fcfcU,
  0xe291006f503ff01U, 0xf2fff6ebe1130c17U, 0x10901020507fdf4U, 0x708fb060b09fe09U,
  0xe800010209111f0dU, 0x80b1107f9fff0fcU, 0x60b000bfe07ff08U, 0x171d0f0302000404U,
  0xf5f8f3fde1eafb15U, 0xff09010e100b0f03U, 0xf703040404080a09U, 0xe1e6e4fa1a140604U,
  0x7110e01f5f2dffcU, 0xfffe060405fe080cU, 0xe709fcf5eaf2fa06U, 0xfeeee9eb02f9ede1U,
  0x90c0b09120800f8U, 0xd5eaf506000c0604U, 0x608f2d2d9f8f4eaU, 0x1120af4fbf7e9ebU,
  0xfd010702060107feU, 0xd6dbe7dfe0e6f5fbU, 0xf0f3ec010b1612e2U, 0x40707090107f9f9U,
  0xe0e6f8fcfe0a0200U, 0x62118fee3d9e4eaU, 0xfffd00f7f6fbf0fbU, 0xcff0a010b030cU,
  0xeaf0eae8e9f1f7fdU, 0xf704e5f70706fe07U, 0x20001000700f7edU, 0xf2fd020b0100fe06U,
  0x1fefdfaf5fc06feU, 0x705f0f8f2f5e9f1U, 0x504ff010a060b0bU, 0x60d13fe06080c0aU,
  0xeaecf2edf1f00400U, 0x30508000905fceeU, 0xc060b0200000403U, 0xf3f5edeeff121017U,
  0x70809050204fbecU, 0xc000c0b0a050affU, 0x9070c1a0d09040aU, 0x80c02fd06060e08U,
  0xa0100fe0b010811U, 0x70303020b020301U, 0xe14120c09110a06U, 0x505070b09100706U,
  0x90a0cff020502U, 0x10301fe0401ff09U, 0x20cff040004000cU, 0x806010703070b03U,
  0xfbfe0101fc0400fbU, 0x4fffa00040104fbU, 0xfbfc01f9fdfefb03U, 0x4fafd0202fc04feU,
  0xfaff00fb040301faU, 0x40005fa0202fefaU, 0xfe0103030102U, 0x304fbfdfefb00feU,
  0xf7ff01fffffa0202U, 0xfefd02fdf800f9feU, 0xfcfa02000302fbffU, 0xf9fbf7fa01010002U,
  0xf6fc07070b04fcfcU, 0xfd000103fa00f5feU, 0xfd02fa00ff010304U, 0x140909fb04fafdfdU,
  0xf4f7f702121c191eU, 0xfa00fbf90200fefcU, 0xf7f9fcf6f6fdfffdU, 0x1e28291c1a0409fbU,
  0xfe0200f1edfa0915U, 0xf3fb00fcfc0303fdU, 0x7fefaf9f7f5eaecU, 0xf60e1b2b3033240aU,
  0x5fdfef9fefbfaedU, 0xf6f8f1f3f8f3fbfaU, 0x2f2b0eeeedddf402U, 0x201fdf603131e21U,
  0xfef2fd01040200feU, 0xebededf3f3fafefcU, 0x19212123231a04feU, 0xfdfffb00fefff201U,
  0xe9fbfcff03fbfa00U, 0x2e01ebe9f4f2eef2U, 0xfbf8fb02272c2833U, 0x402fefafc000403U,
  0xeb05f5f7fae8fefcU, 0x2a40302e17f4d6daU, 0x1fbfbfbfaf9f402U, 0xa05020c1000fffdU,
  0xee3d5c8d7fbfcefU, 0x1fc000b2a333139U, 0x91303020200fdfcU, 0xddf0faf209100306U,
  0x26322d231ff7e5daU, 0xfffb05fa030319U, 0xfe030c0d040c1106U, 0x1e0bede6edf5f6fcU,
  0xfefd031019252526U, 0x140e120afc00fdf9U, 0xf20507fdfa04000aU, 0x81a22261910fbe0U,
  0x101fdf9030003U, 0xf90806fc0f0d1a0cU, 0x1c09f7e6eff701fbU, 0x1030303fc120914U,
  0x81018080004fffbU, 0xeef0fcf2f40c1105U, 0xf8020200f7f901f6U, 0xfcfffffc00fcf9feU,
  0xfa0816100a0b0809U, 0xfce7f1f3f9fdfdedU, 0xfbfb01fdfff5f3f5U, 0x90406f7f902fafeU,
  0xf7ffe8d8e3ff1715U, 0xfc03fbe9f2fff1f6U, 0xfafc0405fb00fe01U, 0xe9fd0e11150d03fcU,
  0xf5fdf8f3fa001108U, 0xfdff03fc03fcfbf5U, 0xe120d08fffc03faU, 0xf9000e12fef6ed02U,
  0xfbf3f3edf4fbf9ebU, 0x30202fbfefffff9U, 0xf6edf7fa17150606U, 0xf5f9f8f3f3f2f900U,
  0xfb030302f6fbf5f3U, 0x131506030405fdfaU, 0xf5f2f6f900040b14U, 0xfbfef2ecf8f6f8f6U,
  0xfa02fffe03030203U, 0xf0b110f1606fe00U, 0xeaf1f5fcf1faf8f5U, 0x3fc01fdfcfdf6f2U,
  0x2040303fafffb03U, 0xfefaf80f0f17060bU, 0xfd02fcf6f9f400faU, 0x403fff900fafdfeU,
  0x3070c0f0107fffeU, 0xfc04fafefdfe00U, 0x1fa0401fafd0106U, 0x3fd0501fefe04ffU,
  0xfdfefefe02060801U, 0x4fb0100030206fcU, 0x1fb00fb03fa05fbU, 0xfffe04020202fff9U,
  0x3fcfff90201fafcU, 0xfbfd010102fa0302U, 0x201ce126060e1920U, 0x7161324e3e226d9U,
  0x2403e02813f12937U, 0xe838e10fe2f0e62aU, 0x2bdd0e0c1912f0dfU, 0x23e7dd0c03081611U,
  0x2af215da0a18eaf4U, 0xfc1add08020a2b04U, 0xddfe1b1f0d04ddf7U, 0x16fce6ef2fee132aU,
  0xf9eadcf00af9fd07U, 0xbfd360fdc1f1712U, 0x3633f22c0631e4ebU, 0xef0911f3202b30e4U,
  0xe927e9182405022cU, 0xf8f4e40008063003U, 0x29e921f414e1f831U, 0xe5090ef41d191737U,
  0xfb2927f23503e8e0U, 0x1a39e9de01ef1cU, 0xdff71c0424ece7f2U, 0xf9edf0293110082bU,
  0xe2d19f7e90f2ffeU, 0xeefbfc29f4240920U, 0x2ffcd632e720e1fdU, 0x29fae0f42504fb20U,
  0xdfdee839102fe2daU, 0x301ee3d41feff3f3U, 0xdcffe62ad90c37fdU, 0x28fbed2df911d310U,
  0xd5e2fc13d2120737U, 0x261cf705000cddd6U, 0x2c0021faf738fc31U, 0x1c3220f028f9deffU,
  0x2a25d7152af6f009U, 0x23312b03d4d71ff2U, 0x14dcea270ecbd420U, 0xd6e11de317f1f02bU,
  0xf82d192e2731f00eU, 0xca110b0318e032f2U, 0x27fbebe8dfdd182bU, 0xe1231a0a240fd92eU,
  0xed5e0f1ee3024f8U, 0x1e5e213e5e9c407U, 0x26e608fb2b1f0bdcU, 0x35f4ef3622ffd6e0U,
  0x12160a18010feaf3U, 0xd4292edaf6e5f30bU, 0x1224200e1600cefeU, 0xc0172e0f1734e6f1U,
  0xf82ef1fae213e9e6U, 0xeb07dc0a15d3e82fU, 0x2e371ffc3513ee0dU, 0xf5db2e25c0f61701U,
  0xe40cd433d7232625U, 0x1b1108efd6090c11U, 0xe51d2f1b1dda32ffU, 0xfbfc04faf3e026fbU,
  0xde030de10f290f1eU, 0x1b35220f0efc1ce3U, 0x1ecea24011addf2U, 0xffe51e2608142f0cU,
  0xfa1d15f5df35f739U, 0xcd3514df0828370aU, 0xeee03228f417060fU, 0x14140c29fcfdeb1bU,
  0x23f02ddad426df3bU, 0x1cfcd6131836f4f7U, 0x20ebe1cc1c3af915U, 0xe4051e1ff030ed2dU,
  0xa230a11ddf1111dU, 0xe2df3d1dfce70cfdU, 0xe27d8f8d61f1706U, 0xf90c082df9182427U,
  0x2efe001000043cf0U, 0xda19e30dd10805f9U, 0xf8e8e71b0e351932U, 0xfee62f1e09f1f9eaU,
  0xf0e10828f52e3704U, 0x2a0c38e612fb01e7U, 0x331005dcd82de104U, 0x29dd3429ece007efU,
  0xec1422020ddbe019U, 0x1ef7e215e3133621U, 0xf0e63429f0d9ebdcU, 0xf2e42d0d0ce5efdbU,
  0xd0be6161d2802f7U, 0xf11bde27f419ee29U, 0x121aed002b0e3304U, 0x231be2e914e310d6U,
  0xe319d52e18f8ff10U, 0xf62c152e33f2e2e6U, 0x1031f0fee4ded817U, 0x1ffddbe82b3502f8U,
  0xf8d5eeff3533f5ecU, 0xe73208d7de1ff509U, 0xd51b2d0029edf4ffU, 0xcfa0c12e0212c14U,
  0x709070004070202U, 0x6ff0a0007070504U, 0x90a050506040309U, 0x90a0104010609U,
  0x9ff000a05030006U, 0x505fe07070101U, 0x40a040802040703U, 0x8090709050a0300U,
  0x60300ff030209ffU, 0x90a0303040503fcU, 0x705030106060901U, 0xfcfb06010406ff09U,
  0x2f6fff5ebf2fe00U, 0x800020600010501U, 0x8fe070a0002ff09U, 0xe9e9f2fbf900fe00U,
  0x50c060000f6f8U, 0x104070302ff0407U, 0xfdfbfefafc060705U, 0xf1f7ebeff0ebf2f6U,
  0x1080300030804f8U, 0xf2fdff0903080106U, 0x104f4f4f5f0f6f8U, 0x9060904fb060a0fU,
  0xff07ff05010801feU, 0xfbf4f0e5ecf8fafbU, 0xd01192207100a01U, 0x20afb0302000405U,
  0xe7f7f50200000103U, 0xfe05fbfb0d0a02f8U, 0xf801f4f00107fbf3U, 0x1080709090001f9U,
  0x101007f5edf1fbfdU, 0xf6fef8f400e8fdfcU, 0x4ff01f9f3fff2f0U, 0xefe9fafc06080209U,
  0x3e7e50115121801U, 0xf3f7f2f4fc000301U, 0x10805050107faffU, 0x1a1e1413fcf4fbfeU,
  0x71428251ff6d8faU, 0x704fbfcf3fcf900U, 0xf8f5fa0008030500U, 0x370cf1f00a22180fU,
  0x1fd080304172d2eU, 0xaff0205040803fbU, 0xfd131302f9f7ff08U, 0xfc0f20353e3104f4U,
  0x70703f8f9fbfcffU, 0xf2ecfe0302040409U, 0x31342312fefe04feU, 0xfef7eef4f6082740U,
  0x404020a0a030701U, 0x160601f3ece9f903U, 0xdbed1e3f25202523U, 0x10702fffff9ede0U,
  0xedeff80101010106U, 0x170f11170c00f0f5U, 0xfbefe4decbcdf123U, 0x10008030707fefdU,
  0xf6f4ebeae7eef3fdU, 0xc9c2d1f900000105U, 0x708faf4f0eee1U, 0xe4edf0f6010902ffU,
  0xf3fdf9f0faebe6eaU, 0xf4f1eadfcec2c8e1U, 0x6ffff07060702f6U, 0xede9ececf2ebee00U,
  0xdbcacedbecf2fcefU, 0x309fe02f1f9f3deU, 0xedeff8ffff080906U, 0xe0ebfaf7ff0000f1U,
  0xfbf6f1e6e7dbe2e7U, 0x707040a01030806U, 0xfe0e0c00f6f9fe02U, 0xe7e2dcebede4f600U,
  0x800070400f5f5f5U, 0xfefd05fe0000ff05U, 0xf2f8f8f600110c08U, 0xfbfdf3f7f1ebedefU,
  0x603ff04010603fcU, 0xfb03050503070404U, 0xf5eff9f4f5020407U, 0x305fe06fe0302f7U,
  0xa0c0c0507060402U, 0xf6f7faf0edfa0106U, 0x202060601faf5fcU, 0x100050101020502U,
  0xfd0408080a090a0bU, 0xff0aff05050b0105U, 0x50305080306040aU, 0xb060a0306ff0805U,
  0xd1712050d0b0908U, 0x600080203060e12U, 0x80301000203090aU, 0x4020a0905070208U,
  0x503090904020200U, 0x704080507000a02U, 0xf13a400207352e2bU, 0x1ddddcdef5340433U,
  0x1a21323e0627eaefU, 0x342b243afb1d0fdfU, 0x19e9ecfdfaf6edefU, 0xeef4261616202129U,
  0x310f07f310e0f801U, 0x1c23e6292d30efd4U, 0x1fedd90435e43f3cU, 0x11ebecd338243e25U,
  0xfbfb380837d83efaU, 0x191eed0deee60025U, 0x140b2d19efee29d4U, 0xdef2f14093d06e1U,
  0x25d83e31f235fe22U, 0xe4f614e23c0c0439U, 0x193bedde23d32327U, 0x163a0432320df2d5U,
  0x3c20eee723ee0e1fU, 0xf42ae226ff29e110U, 0xf8e43832e4f11808U, 0x3e3ef8df1fece93fU,
  0xddeb17fad4e53036U, 0x2eadcd708e0ef27U, 0xf9fe0a2cf91716e1U, 0xe817ef2922e3d4e9U,
  0xc3dec9c90df8c213U, 0xd4ee15d3e9ee30d3U, 0x305f1ebdf0a39dcU, 0xe100050a09c61a2dU,
  0x3213daee2a1229eaU, 0x520e733012f091dU, 0x1a2cf20fd20c0924U, 0xe61dda09cd17ecdaU,
  0x1035fa1d0c3bdd1dU, 0xca3cec34f600e3eeU, 0xfce9210317c0efc6U, 0x13db21050de1d7d5U,
  0x83530033a30191aU, 0xf5e206271fecdc1aU, 0xd8f2f5fa1826f0d0U, 0xffda32d92c0106c2U,
  0xee2219d4f90014ecU, 0x2b1eca0009d1120cU, 0x28e5f71c07c11e1aU, 0x61b0117e632021bU,
  0x4212d1feee23cfbU, 0x612d6f80efe23f3U, 0x32b402620d3ecffU, 0xc0362e2cd3333835U,
  0x819c017de230ff4U, 0x3f1f13f82c0de220U, 0x152ffdd4eb26e7fcU, 0xeae107f02d32e90cU,
  0xeb0f22181a18ec14U, 0xe4de0af434e512e4U, 0xc8fde9030cf1df17U, 0x1428eceb2f0beefaU,
  0x4033f2c710220ce2U, 0x30fceaf32f360bedU, 0xea2b0708dbe8ec25U, 0xf12a2adf37d8e306U,
  0x2d0003e50c06ddeeU, 0xef1a34153df5e3f5U, 0x3b3f24fa2c1cd027U, 0x131f1f07f8ed241dU,
  0x3221101904d9f0deU, 0xde1d23ddd7eedf3cU, 0x18ed0d11d5e2ec1aU, 0xf2e03da3524f205U,
  0x18f03a25d6e3d9f8U, 0xf62cea0f1fe001fdU, 0x1fddcffdbfdc8f2U, 0xef23e13d16e22f1eU,
  0xddd311df1b28d6e0U, 0xc6ee251df82c1c2cU, 0x9372019402be3e0U, 0x3633ed0137f40f3fU,
  0x7fbd201c1fbe7e6U, 0x51f1de11aee07f5U, 0xd81d183fedfce5fcU, 0xcbf8f8e2253bd33aU,
  0x2207d7230806fbe3U, 0xe31233dd16310303U, 0xd4fe3d3ff033092cU, 0x8d000da0de8f400U,
  0xe32cfe2fd70d1830U, 0x34e2f90af2ee1703U, 0x3d15e7183ce4ed2fU, 0xa1215db131f1224U,
  0xbfce80ff5ffd32bU, 0xc06e1fe152ffa14U, 0x2053de7e40a34ebU, 0xe3f2ed37ddd423f4U,
  0xf13605dcec07d526U, 0x3d26e3ea2d2f0939U, 0xe22ce039112531ecU, 0x1deae7f0fbf428e3U,
  0x3fdf9fff6f8ff06U, 0x306fa03f7fe00fcU, 0xfa07fa060703f703U, 0xfefb03fbfd07f600U,
  0x4fbfcfdf7f6faf5U, 0xf800fa03fdfcf8fcU, 0xff06080402f7fd02U, 0xf7030106060504faU,
  0x5fcf802f70104feU, 0xfc06f8f601030604U, 0xf8ff0001f704f7fbU, 0x204f9fa07fff7fdU,
  0xfc090205f9fe04fdU, 0xfc0400fe0205fcfbU, 0xfb09fafafc0405feU, 0xe700fa0102f9080cU,
  0xf7fc0806faf6e8f3U, 0x50201fbfbf60202U, 0xfc060c1b1210fc05U, 0xf0edf6f1ddf7f40eU,
  0xfdfd0003f7f2f3f3U, 0x1a1d1409fa07fff9U, 0xecf3fafee807151cU, 0x1fcff07fbe5f3eeU,
  0xfffdfd04070803ffU, 0xe2f103041a1d1c09U, 0xf7eef3d6d3d6f8e8U, 0xf904000001fdf9U,
  0xf1e1815fffa07feU, 0xcbc0e0ece6e8fc06U, 0xed0205fefffeead4U, 0xdff0106f8fff8edU,
  0xe5e1e90104171806U, 0x220cfdf6c5dad5e8U, 0x9fef8e0f9192028U, 0xf7fc0e0a08fc04fdU,
  0xd9cad9ecdbe1f7e9U, 0xee0b1529231500ffU, 0x6fbf7f7faf6edebU, 0xf1f60bf1eee0f5f9U,
  0x170c01fbf4e9edf5U, 0xf900fef1f4f80f15U, 0xedddf8fff9fffdf6U, 0xdf6150c03fcf4f4U,
  0xfe000b01040d1220U, 0xf7ff0103f701fafdU, 0xefbe7fae5f1f4f3U, 0x141c212423fd150eU,
  0xf706050003fc110aU, 0xeff507ff0107f8fcU, 0x2a19162111f4fef4U, 0x61407192e1c2629U,
  0xfd05fd04060101U, 0x220505fef8fcfc0dU, 0x3d1f2f1734302b1fU, 0xfffff7fefd27291fU,
  0x2215fffb0bff07f6U, 0x27272a2e18051321U, 0xe1d2d22322b2e1dU, 0xfa03f90604fa02f9U,
  0x8ee0a17280b0105U, 0x61c192c060b2617U, 0xfff7f4f103112310U, 0xe0ffc04ff030700U,
  0xebf50cfef7e3ecfaU, 0xfcfc1005f90d0519U, 0xfe03f8f8faf9f6e7U, 0xe0e0f4f60c0902faU,
  0xe8fc110ef7f0d3c9U, 0xf7faf9f2ece1f1e9U, 0xfdf7f4ff0a0502fcU, 0x5efdfd0c3d0e7e2U,
  0xe6e3ecf2e5f1e8ebU, 0xf9f703fdfd02f7eaU, 0xf3f3f1f8f1f7f505U, 0xf8e7eeeaecf5ecf1U,
  0x7f5fdeee2e8f1e7U, 0x1f9f40207fa04f7U, 0xe8e4e4f907fffc02U, 0xedf1e7f2f7eddaeaU,
  0xfefbf8f9fefefbfeU, 0xff0305090d04fefeU, 0xf3ede4e8f1f0f2fbU, 0x10100f9e8ebfbefU,
  0x90b0005fdff0407U, 0xfafe0c0013060c09U, 0xfd00f5faf9ebecfdU, 0xfcf5f6fb03f9fffeU,
  0xfc0806f5f4070908U, 0xebeceffaf7fe0707U, 0x4f603f303f600f5U, 0xfafafe0301fd0104U,
  0xf8ebfaededfbff07U, 0xfd01f8fef8f8f5eeU, 0x100000302ff06f6U, 0x504fffc0502fafdU,
  0x6fcf901f5fc01fcU, 0x1fefdf7fd030504U, 0xfffcf806f908fd08U, 0x205ff0307010009U,
  0xfff8020304fe0000U, 0xfe06000708f80907U, 0xf9040507fdfeU, 0x5030400fafffcf9U,
  0xfc0507050109fc00U, 0x504000a0a010506U, 0xfaf9f1f905050105U, 0xfa020305f607f8fcU,
  0x509fbf9fb0607fcU, 0xf6f4fb05fe0a0705U, 0xf104f705f7ff0104U, 0x408fbff04fefa00U,
  0x808010804fffdfdU, 0x10fb03020703f403U, 0x4fdfcf50100f6feU, 0xfafe040407f900U,
  0x1100fb000c0d0a04U, 0xf1f7f60107fd0d0dU, 0xf80308f9f0f3e7e8U, 0xe0c0c0c0001fdf9U,
  0x10e211a271d1613U, 0xf2f2eeedeff90210U, 0xff0607fa07fcf9f9U, 0x172b210f0c0f0d13U,
  0xfe0b090b0e1526U, 0xfd04fdf4f0f3f710U, 0x120c0c1403fafb02U, 0x141504141d1e231eU,
  0xeffb0b12172c1c19U, 0x403f904040504feU, 0x80e171a271e1209U, 0xc1c33211f1f11fbU,
  0xfd090102f1070618U, 0x13170f060704f9fbU, 0xfb0c06e7fbf3fc0bU, 0xfc0b141b0d202015U,
  0x7000201fa09f9eeU, 0xfbf2eeeaf8f8f90eU, 0xf2a3400ecfafcf1U, 0xfcf3faf20620U,
  0xf3f6f801080b0a02U, 0xf5efe6e2ec03f1f4U, 0xf6f5eefcf72b210eU, 0xfb05010408fe05f9U,
  0xe5faf4f5f3e3e4f5U, 0xdafe07f7eefff9e4U, 0x6fcfdf9eaeef6fcU, 0xdcd5dbf2fdfc0a08U,
  0xfe030e07f1d6e2d6U, 0xeaf3f5e6dfeb09eaU, 0x50af9060003fdf5U, 0xfbdfc3c0c0cfdcf4U,
  0xed03230314ff050dU, 0xff0706fefc1504fdU, 0xccd0d60008fa09f8U, 0x8f9fd0af9f0d6c7U,
  0xfd0a07f0f00c3518U, 0x207fc090700fafdU, 0xe5caccdad6c7ebf6U, 0xf5ef25191afaf3d7U,
  0xfefd00fdf9fb02eaU, 0xdae7ed010305fb00U, 0x8e9e5c3dbe0e4d2U, 0xec01fbf7f7f11013U,
  0xe0a04fb0308f9faU, 0xd8ecebeaede9f904U, 0xf2e9fefeefe6d7c3U, 0xfb02f9fcf4f4f6e9U,
  0xfbfc0e100404f801U, 0xdde3e2dbebf2f1faU, 0xf0f3e9f3f1e2efedU, 0xb01fdfc0300f8f3U,
  0x50efa090d0c080eU, 0xefeefaf5f4e4f8f4U, 0xfa08fbfbf1f0edf4U, 0x1914030d01fff907U,
  0x60b0602080d1211U, 0xecf9e3f5f3fe0802U, 0xfff90908f9fef6f2U, 0x1b0d0d051b131409U,
  0xfb01070a150d190cU, 0x203fcf5f1efeae5U, 0x271e0f0f00000006U, 0xbfefbf60f0f1517U,
  0x2f4f7ebf7f9050eU, 0xa08ff03fcff02fcU, 0x201e161614070ffeU, 0xffff0b08110f1922U,
  0x108fbf9f6fb00f8U, 0xd030201faf9fafdU, 0xc14110b070b0b0dU, 0x60000080d0a0b0cU,
  0xff05fef90004feffU, 0xa02ff0503fb0803U, 0x70b0bfe060a0b09U, 0x3f901fb04f8fc05U,
  0x2c093e170401fa1bU, 0x3a2308e3f239e51cU, 0xf311190012f9dd15U, 0xce0dcf73038de21U,
  0xdd712fb103e40f9U, 0x3fd9220ee52b13eeU, 0xfe3935e1efe7fd3dU, 0xed0b0d38f9e219e1U,
  0x39efefd7070cd30cU, 0x1ae6e8332bd3253bU, 0x2de92c2df916d734U, 0x25fddcdc3923f508U,
  0x81cd62c3ee1dd1dU, 0x25dfd5d70b14fbd7U, 0x3e1adbd7f0132c02U, 0xedd52bda040a22d4U,
  0xf4e721e1f6d3f422U, 0xd30cecd53c11ffdeU, 0xebec25e218e7d33fU, 0x3e1f1a09fc09dfe8U,
  0x3f0733eb3fe4fe28U, 0x220227e502e7f439U, 0xfe17e709101bf531U, 0x3b0a1ae0e1fc2a31U,
  0xfe0b25d5301ced0fU, 0xe216f4f9221bdc3eU, 0xa0bfef7f105cbe1U, 0xea1c32250736161eU,
  0x2e24d9d7fb2dda07U, 0x1eeedef2f42ff23eU, 0x3826ffeb1aeb26d8U, 0x3c3fd92c2028f320U,
  0x24e03502f908290bU, 0x4e71bf51ff42d3eU, 0x2917350c32223d0bU, 0x36f510e2dd2b2ee4U,
  0xbe917d6d536132eU, 0xe639ecda23df0325U, 0x20d70a37321b1df5U, 0x150000dd3ad41ee9U,
  0xde1818e22900f3e4U, 0x411382332d9fdebU, 0xdc2bdad6fb070025U, 0x9fe1aef30dceb02U,
  0x1222fcd4d730f609U, 0x3f38e3efe6190fe9U, 0xe2121b02ecfd3ee9U, 0x106301b2c29f90aU,
  0x3b0e19f01d04e7U, 0x3efb3d0d21e5373dU, 0x3f01e0c0e3226e0U, 0xd20e0902e4ed36d7U,
  0x230dda270f20e129U, 0xd6d5e739f3fcfb20U, 0xd5e42e2b17190b11U, 0xfa38f03b07f1fce1U,
  0x2ad2d83006fdd804U, 0xdef7f0cf1e04361cU, 0x31f30c29fffb1c25U, 0x2ad7df08e53a3f23U,
  0xe20f40092829f9f3U, 0xaf71600e00c2214U, 0xd82f050afff5e920U, 0x3829f5ed300ef8e4U,
  0xfee3dd04ec293f18U, 0x26da2a3afb16f0d8U, 0xf3710da1c0f3be1U, 0x363131393700ff03U,
  0xf25ec3e3901eddbU, 0x402d040114f73dd5U, 0xebdf090ddc2c3ae6U, 0x9fc0de10011d42aU,
  0xd93005f5eae43de2U, 0x152130d313123818U, 0x3cd30b1aef2f33f9U, 0xe8de223520ee1521U,
  0xf5ec26e905360ddeU, 0x1ced0400e5ee1adaU, 0x26f6cffcf3e823d6U, 0x311232cd4e12cdcU,
  0x10212dec1ef21228U, 0xfe0f032af8022926U, 0xaf027ee160e12d6U, 0x39d5f3180f0a0ce5U,
  0xddedde0dece3e62dU, 0xc42b2626e704d818U, 0x73c0040ef28f1feU, 0xeb2d2122dc283400U,
  0x3032d9f217082f31U, 0x9d9d8e415d9dc39U, 0x2204f824e302ef23U, 0xfd34f80ede0ef409U,
  0x1839243fdd132d24U, 0xed2d0914e3332fd3U, 0x1d343c262cffd63cU, 0x2e0e251b1b181c03U,
  0x1600ea0fead51e1aU, 0xd52628d52c3c213dU, 0x8fc04fb03f90000U, 0xfcfafffd00fd0001U,
  0xfd01fb0502f90802U, 0xfc0001fffbfefa05U, 0x708010300ff0106U, 0x90708fdfdfbfc06U,
  0x2010401fb0404fdU, 0x4030004020108f9U, 0xfd07000204040801U, 0xfffb0a06fe000904U,
  0x100fa0703fb00ffU, 0x3fefafcff0502f9U, 0x100a070afe04fdf3U, 0xfdfd05fe0c0bfffdU,
  0xf501fffdfb0703fcU, 0x8efe9ebeef6f4U, 0x2060902ff091a0dU, 0xfbfe010102fe02U,
  0xe8e7e7e5f0f9f205U, 0x121b211e180ffee9U, 0x70304f8fd081912U, 0xecf2f601fafefdf9U,
  0x902f0e9e6d5d4daU, 0xf2ff0ffe0e13240eU, 0xf90004fafbfefdfaU, 0xf5e2e5dce1e5f901U,
  0x32120091103fbf3U, 0x604f9f7030407f5U, 0xe7e3ebfa02f807faU, 0x80a170ef7f2e5dbU,
  0x800fffd03000114U, 0xf401f906fe02f504U, 0xcfbded8eedfe2f0U, 0xebdcdbff020e2417U,
  0xfc04000900f2e9ffU, 0xe9f1e7f7faf8f906U, 0x41e0e221cffedeeU, 0xaf9f5dfd8dbd9e9U,
  0xfd050407fcf9f903U, 0xeef7fcfb01efecf5U, 0xeacccedff7160dfdU, 0xfcfafd0e1c1205f0U,
  0x6f9eaf2fe05ff04U, 0x11a25fae9f201fdU, 0x16200bfdf6e7e8f3U, 0xfffffe07fff9051bU,
  0xf1fe091811fceef8U, 0x5f8ddfc0d2a351fU, 0xfe05fd0b231307edU, 0xb0afffa0400fbfdU,
  0xf20e281f11fe010eU, 0x6fdfbeff1f4ebedU, 0x60206fdfcfb0614U, 0x1c020300ff081106U,
  0xee03f002f1021429U, 0x5070d08ebeef5U, 0xfe0a08fffa07ff00U, 0xfbedef2a302c1c0bU,
  0x8fcf6efeff30917U, 0x30401ff050b050cU, 0x303a281309160af8U, 0xe5f2fd1109dcdb04U,
  0xfafe02fefe03fdf3U, 0x21190d00010507faU, 0x1dfc0e3fb242825U, 0x70804faf0fd060cU,
  0x4fb0801fcfa0b06U, 0xf6101e1215100f07U, 0xf7080b0a05e6d6e3U, 0x101fd0a17170503U,
  0x1a151309ff0304faU, 0xfde6ddecfd131a18U, 0x70e03f2e9fe00f3U, 0x20303fdfbffff07U,
  0x131920151a1a1008U, 0xede3eff7f4f3e8f0U, 0x7fb0706070f06f5U, 0x180806fd070005fbU,
  0xf2ef0303141f231eU, 0x70302f3eceae0e8U, 0x3030700fefcf9f9U, 0xd121e1b06f3f6f8U,
  0xede7e0e3e3f9fbffU, 0xfbfffcf9ff00fef9U, 0xede7f3f302f9f908U, 0xf0ecf10101010bfeU,
  0x1fdfc01fdf5e8e1U, 0xfe01fe0507fa01feU, 0xfef4f6f2fe02f5f6U, 0x300f6ebedf0eff2U,
  0x404020809fcf9ffU, 0xff0102fdfc0402U, 0xf708040a0701f604U, 0x403fbfffe0105f9U,
  0xfbfb0504f9060405U, 0xfefeff07fc060302U, 0xfb02fcff050302fbU, 0xfbfb00f9fb02f903U,
  0xfefe0202fcfe0101U, 0x4050000fbfc0000U, 0x10004fffb02fd02U, 0x6fe040403fdfb00U,
  0x6fc00fefa03fcffU, 0xfe0302fe04fcfc03U, 0xfb00fffefeff05fdU, 0xfc0504030002fa00U,
  0xfdff0106030005ffU, 0x1fffe02000504feU, 0x5fdfb0102fe0402U, 0x60a0b08fcfb01fdU,
  0xf7fafaf6fbf6fc06U, 0xfe04fd050204fbf9U, 0x500fffbfd04fcfaU, 0xf6fcfe03070a110eU,
  0xf4fdf900f9f707ffU, 0xff060405fffcfef9U, 0x7060b0b0404fe04U, 0xf5f9f7000505f8ffU,
  0xfe00ff00f4f8f2f0U, 0x10080103fe04fefdU, 0x9fe0502fb050c15U, 0xf4fd02faf3e7f906U,
  0xfefdfb040500fff4U, 0xa050c141108ffU, 0xebf2f3faf8f30ffeU, 0xfb00f2f7fdfb02f4U,
  0x1e160c0f06ff05fdU, 0x4171f0efe12121aU, 0xf700f6f9faf1f8fdU, 0x4fb02fd04f3f6U,
  0xf14151f11151107U, 0xf9f40f02f1060917U, 0xfb06faf600fefdf6U, 0x1a12140cfdfefdfaU,
  0xf4f1f4fb151e1c1eU, 0xfc0102fc040a0a02U, 0xfe02fcfa02010004U, 0xfb08181b1b1007ffU,
  0x3fdf3eaeae8ece5U, 0x1020202010502fcU, 0xfc04fbfcf8040204U, 0xf4f6edd9d4e2fc02U,
  0x50900f8fcf4fa09U, 0xfdfcfb040001fe0dU, 0xd4c9ded9e3ebf7fbU, 0xfd01050603ffeed6U,
  0xfc030b0d0b0002fcU, 0xd9e3f5f3f600ff02U, 0xfafb03f6f1c9c0c3U, 0xcfbfef2ff05f6f0U,
  0xfb04fcfc06020512U, 0x12e4cec7d5dfeaf3U, 0xf608faeef50b231aU, 0xfc090e0906fcf9f0U,
  0xe1e0eef1f8fd04fcU, 0xf1092d2f3313f2dfU, 0x1f2f2f2f9fafdfaU, 0xff0102ff0304080aU,
  0x3f2906e1e5e3ecfcU, 0xfdf6fc03f0061b39U, 0xfe05080d09f8f1f6U, 0xeee5ecf7f90105ffU,
  0xf7f31e37303816f3U, 0xaf9f4f70504fc00U, 0xf802fb04ff070909U, 0x302f13f4f1edeff4U,
  0x5040305090b2338U, 0x20103ff01f1fbU, 0xf4f8f4fafb000404U, 0xf0d142d271ffafaU,
  0xfffaf9f601fafbf9U, 0x1fb02fd030602fdU, 0xa06fefcf8fef8fcU, 0xc02f700131a1811U,
  0x5fbfafa020a01feU, 0x904f9fffafcfb02U, 0x111b1d1a110c0505U, 0x10306010504f8fdU,
  0xf9ff00fc02020000U, 0x15030a05fdfdf900U, 0x705020f13152120U, 0x10003fd05060300U,
  0xee00f90000fb0300U, 0x19160e11fdf2f8f5U, 0xf9fcf80308080710U, 0x1fe050201040105U,
  0xf9fbfafb0200fdffU, 0xfffeff081208faf5U, 0x5fdfdfd0200f7f5U, 0x50102ff04fe03fbU,
  0x1fefdf3fcfafb01U, 0x1fefbfafef7fcU, 0x305fffefdfb00faU, 0x403fdfb000603fbU,
  0x60200fb020505fcU, 0x2fd00fb000200faU, 0x301fcfffb05fc05U, 0x3fa000502fc0102U,
  0x2ff02fafd030203U, 0xfefafdfffc02ff01U, 0xff00fe03fefdff05U, 0xff0102fffd00fe05U,
  0x50301fafdfa0504U, 0xfc00ff05050200fdU, 0x40403ff05fd0101U, 0xfa000402feff05feU,
  0xfd030202ff03fdfeU, 0xfdfdfa0404fdf9f9U, 0xfeff060b10090908U, 0xfcff0202fdfffbffU,
  0xfd0000fafffd0103U, 0x6f80400fcff0502U, 0xff0300f9fc0304U, 0xfc0204fbfa0403f9U,
  0xffff0002fb020402U, 0xf3fdf3fdf4030afeU, 0xfa0100fa0405fbf4U, 0xfa01fc02fbfefa01U,
  0xe6fd030bfff9f6fdU, 0x106fff3f0faeeeaU, 0xfbfc04fbfbfd0503U, 0xd09fdf603fd0002U,
  0xfdfef0f6eb000016U, 0xfe05010802f6f1f8U, 0x4fd02050907fb04U, 0x101e232407040201U,
  0x8030605f6f6f6f1U, 0x4fffb05ff02000cU, 0x180b03fe0600060bU, 0xfffeeedefb244030U,
  0x5ff0a0b0f0709feU, 0x3fb080506000501U, 0xd9023c392f0d0408U, 0x60e0b0af705eac8U,
  0x602fbf9fc03090dU, 0x31250efc0206fc0cU, 0xfd0bf9d3c0d10d2bU, 0x303000f0803f9f6U,
  0x1610fdfd0802faffU, 0xc9c2d90023322c1dU, 0xb04f0eee802f6e9U, 0xfffd0303fe04060aU,
  0xee1721231c1d04fbU, 0xe0ecf1dadcd4c1daU, 0xfefdfd0a0604f6e5U, 0x1d190ef5fe06fb02U,
  0xf6e4cbcacef40814U, 0x181003efe5e8e4e5U, 0xfa05030104010312U, 0xc4dceb06140cfffcU,
  0xe9e6e5eff2e5d5d2U, 0xfefafd0511130a00U, 0x801fbf9fe05fc04U, 0xfaf1c7c6ccdbf0feU,
  0xa0b0203fbecd3e2U, 0xf8fafc04fdf8f503U, 0xd0e2e0effafb02f8U, 0xf5f7e6e2f8f6cdc7U,
  0x4fdf7fa09130d02U, 0xf4f8fbf902fe0004U, 0xf9f2d8c6d6dfe9f1U, 0x30d100806fefbf1U,
  0xfc03fcff01fdf8f2U, 0xf8edf801fbf0f8f8U, 0x16070b010501e5ecU, 0xfc02f700f80d0e12U,
  0xfbf6faf8fe0000U, 0xe03fe0e0f060902U, 0xf401fa021210130dU, 0x1f903fa01000000U,
  0xf0b0602fe00f9fcU, 0x101909141202fc0dU, 0x5fdfaf7fefafe04U, 0xf704fe000300fafcU,
  0x1c0910080a0e1508U, 0xf8f6f602111c1b12U, 0xfcfb00fd0104fcU, 0xd141302030604fbU,
  0x5111a09110a0208U, 0x40403f4f4fdfcU, 0x70005fbfbfa00ffU, 0x10a080d00070d0bU,
  0xf601f9020911ffU, 0xff03fafe0103fa05U, 0xfffb0b0c01fafcffU, 0x60901fb00ff000aU,
  0xf903fa02fffb03U, 0xfbfffcf902020404U, 0x4f8fcf5f8000700U, 0xfbfdfefb0607fefcU,
  0xfc02fb0300fafffdU, 0xfb030304fcfc05ffU, 0x50500fafd0404faU, 0xfbfdfe030104ff01U,
  0x5080502060006ffU, 0x505010806fe03U, 0x100ff0603000000U, 0x6070003ff04fe01U,
  0x307080807ff0308U, 0xff0701fe09050506U, 0x3ff00ff06ff0406U, 0x60100ff040807U,
  0x503050507050108U, 0x20705ff01fd02ffU, 0x40108ff01020308U, 0x3fe06ff0202ffU,
  0xff060200fe02ffU, 0xff010004fb030105U, 0x602060507050507U, 0xfdf4fcfeff0002U,
  0x5fd060b14080803U, 0x2fefe0404fb01U, 0xf1f4ff03fe030700U, 0x501faf9eef5f3f0U,
  0x103ffff050a070aU, 0xfefcff0a06040306U, 0xdde0e9ebf5f3f6fdU, 0x60d0e0dfffbfbeeU,
  0x3ff00070607f6fdU, 0xe6ecf1f0fcf90004U, 0x3f4f3ecd1c8ccdeU, 0x300fef70a0a090aU,
  0xf6f5030907060505U, 0xdec7c8dee1e4efefU, 0xfa06050d100b09f0U, 0x8050101000800f7U,
  0xe6f6f5f1fbfd0508U, 0xc192c26fcd7d1d8U, 0x203080afd090e15U, 0xf7f7020d07010405U,
  0x23e6e5dbe9fbfaf8U, 0xa0e1a1c191c2640U, 0x90a0006ff061016U, 0xfbfc03fbf3fbfe0bU,
  0x14202427370df8eaU, 0xff0806040805050bU, 0x1f3f600090a0407U, 0x2415eff8f8fe0c06U,
  0xfbf9f7fafd0a1113U, 0x402060606040c07U, 0xeef3fd050602f8faU, 0xf0fafffef406ebe9U,
  0x7060907fbf8f9f9U, 0xff0403f705050607U, 0xe4e4e2e1e7eefbfcU, 0x407fefcf7ece8edU,
  0x60301feff040701U, 0xe4e8f1fa0c0f0102U, 0x6fae8e8e6e4e7ebU, 0xff0002080aff0109U,
  0x1080f0404040006U, 0xf6f0f2ede9ddebf8U, 0x302030c0907f1edU, 0x305ffff040307fdU,
  0xfcf4f5eefe0f120bU, 0xc09f2f4e8f2fbffU, 0x5fe0702fffeff05U, 0x20d0a050105ffU,
  0xf3f61013190e0505U, 0xf8fbf9f7040c00ebU, 0x101070408010900U, 0x190d0c080a0a1008U,
  0xf80300f6f1f70f15U, 0x7ff06fcfef7f7f9U, 0xfd070300ff0505ffU, 0xedf3fc13160a0309U,
  0xf7f9f0f4f4f3f9f5U, 0x1060006030407feU, 0xfc000001f9fefffeU, 0xeaeff0f3eff6f8feU,
  0x4020400faf8eeefU, 0x6050e030602ff02U, 0xf4fb02f5f2f9fffcU, 0xf9fdf8f0f1f3f9f3U,
  0xfe0502040302fe02U, 0xfc0801ff050a0f01U, 0xf0f2fbf3f4f1ff08U, 0x5040506fef7f5f0U,
